#include "magic_wand_model_data.h"


// We need to keep the data array aligned on some architectures.

#ifdef __has_attribute

#define HAVE_ATTRIBUTE(x) __has_attribute(x)

#else

#define HAVE_ATTRIBUTE(x) 0

#endif

#if HAVE_ATTRIBUTE(aligned) || (defined(__GNUC__) && !defined(__clang__))

#define DATA_ALIGN_ATTRIBUTE __attribute__((aligned(4)))

#else

#define DATA_ALIGN_ATTRIBUTE

#endif


const unsigned char g_magic_wand_model_data[] DATA_ALIGN_ATTRIBUTE = {

  // Paste the data of the char array in `src/model.cc` here  0x1c, 0x00, 0x00, 0x00, 0x54, 0x46, 0x4c, 0x33, 0x14, 0x00, 0x20, 0x00,
  0x1c, 0x00, 0x00, 0x00, 0x54, 0x46, 0x4c, 0x33, 0x14, 0x00, 0x20, 0x00,
  0x04, 0x00, 0x08, 0x00, 0x0c, 0x00, 0x10, 0x00, 0x14, 0x00, 0x00, 0x00,
  0x18, 0x00, 0x1c, 0x00, 0x14, 0x00, 0x00, 0x00, 0x03, 0x00, 0x00, 0x00,
  0x18, 0x00, 0x00, 0x00, 0x2c, 0x00, 0x00, 0x00, 0xd8, 0x00, 0x00, 0x00,
  0x2c, 0x00, 0x00, 0x00, 0x80, 0x00, 0x00, 0x00, 0x78, 0x00, 0x00, 0x00,
  0x05, 0x00, 0x00, 0x00, 0x28, 0x07, 0x00, 0x00, 0x44, 0x06, 0x00, 0x00,
  0xbc, 0x03, 0x00, 0x00, 0xf8, 0x02, 0x00, 0x00, 0xac, 0x01, 0x00, 0x00,
  0x01, 0x00, 0x00, 0x00, 0xd0, 0x00, 0x00, 0x00, 0x14, 0x00, 0x00, 0x00,
  0xdc, 0x32, 0x00, 0x00, 0xd8, 0x32, 0x00, 0x00, 0xd0, 0x31, 0x00, 0x00,
  0x1c, 0x31, 0x00, 0x00, 0x74, 0x30, 0x00, 0x00, 0xfc, 0x2f, 0x00, 0x00,
  0x90, 0x2f, 0x00, 0x00, 0x40, 0x13, 0x00, 0x00, 0xec, 0x11, 0x00, 0x00,
  0x10, 0x10, 0x00, 0x00, 0xb4, 0x07, 0x00, 0x00, 0xb0, 0x32, 0x00, 0x00,
  0xac, 0x32, 0x00, 0x00, 0xa8, 0x32, 0x00, 0x00, 0xa4, 0x32, 0x00, 0x00,
  0xa0, 0x32, 0x00, 0x00, 0x9c, 0x32, 0x00, 0x00, 0x98, 0x32, 0x00, 0x00,
  0x94, 0x32, 0x00, 0x00, 0x3c, 0x00, 0x00, 0x00, 0x00, 0x00, 0x00, 0x00,
  0x01, 0x00, 0x00, 0x00, 0x0c, 0x00, 0x00, 0x00, 0x08, 0x00, 0x0c, 0x00,
  0x04, 0x00, 0x08, 0x00, 0x08, 0x00, 0x00, 0x00, 0x08, 0x00, 0x00, 0x00,
  0x13, 0x00, 0x00, 0x00, 0x13, 0x00, 0x00, 0x00, 0x6d, 0x69, 0x6e, 0x5f,
  0x72, 0x75, 0x6e, 0x74, 0x69, 0x6d, 0x65, 0x5f, 0x76, 0x65, 0x72, 0x73,
  0x69, 0x6f, 0x6e, 0x00, 0xb6, 0xce, 0xff, 0xff, 0x04, 0x00, 0x00, 0x00,
  0x10, 0x00, 0x00, 0x00, 0x31, 0x2e, 0x35, 0x2e, 0x30, 0x00, 0x00, 0x00,
  0x00, 0x00, 0x00, 0x00, 0x00, 0x00, 0x00, 0x00, 0x0f, 0x00, 0x00, 0x00,
  0x4d, 0x4c, 0x49, 0x52, 0x20, 0x43, 0x6f, 0x6e, 0x76, 0x65, 0x72, 0x74,
  0x65, 0x64, 0x2e, 0x00, 0x00, 0x00, 0x0e, 0x00, 0x18, 0x00, 0x04, 0x00,
  0x08, 0x00, 0x0c, 0x00, 0x10, 0x00, 0x14, 0x00, 0x0e, 0x00, 0x00, 0x00,
  0x14, 0x00, 0x00, 0x00, 0x5c, 0x00, 0x00, 0x00, 0x60, 0x00, 0x00, 0x00,
  0x64, 0x00, 0x00, 0x00, 0x84, 0x00, 0x00, 0x00, 0x12, 0x00, 0x00, 0x00,
  0x9c, 0x31, 0x00, 0x00, 0x2c, 0x31, 0x00, 0x00, 0x88, 0x30, 0x00, 0x00,
  0xe0, 0x2f, 0x00, 0x00, 0x38, 0x2f, 0x00, 0x00, 0xd4, 0x2e, 0x00, 0x00,
  0x6c, 0x2e, 0x00, 0x00, 0x18, 0x12, 0x00, 0x00, 0xbc, 0x10, 0x00, 0x00,
  0xe0, 0x0e, 0x00, 0x00, 0x0c, 0x06, 0x00, 0x00, 0x28, 0x05, 0x00, 0x00,
  0xe8, 0x03, 0x00, 0x00, 0x3c, 0x03, 0x00, 0x00, 0x98, 0x02, 0x00, 0x00,
  0xd4, 0x01, 0x00, 0x00, 0x10, 0x01, 0x00, 0x00, 0x84, 0x00, 0x00, 0x00,
  0x01, 0x00, 0x00, 0x00, 0x00, 0x00, 0x00, 0x00, 0x01, 0x00, 0x00, 0x00,
  0x11, 0x00, 0x00, 0x00, 0x08, 0x00, 0x00, 0x00, 0x74, 0x05, 0x00, 0x00,
  0x94, 0x04, 0x00, 0x00, 0x78, 0x03, 0x00, 0x00, 0xbc, 0x02, 0x00, 0x00,
  0x30, 0x02, 0x00, 0x00, 0x50, 0x01, 0x00, 0x00, 0xa8, 0x00, 0x00, 0x00,
  0x10, 0x00, 0x00, 0x00, 0x04, 0x00, 0x00, 0x00, 0x6d, 0x61, 0x69, 0x6e,
  0x00, 0x00, 0x00, 0x00, 0x7a, 0xff, 0xff, 0xff, 0x00, 0x00, 0x00, 0x09,
  0x04, 0x00, 0x00, 0x00, 0x1c, 0x00, 0x00, 0x00, 0x10, 0x00, 0x00, 0x00,
  0x04, 0x00, 0x00, 0x00, 0xb2, 0xcf, 0xff, 0xff, 0x00, 0x00, 0x80, 0x3f,
  0x01, 0x00, 0x00, 0x00, 0x11, 0x00, 0x00, 0x00, 0x01, 0x00, 0x00, 0x00,
  0x10, 0x00, 0x00, 0x00, 0xa0, 0xfa, 0xff, 0xff, 0x19, 0x00, 0x00, 0x00,
  0x00, 0x00, 0x00, 0x19, 0x01, 0x00, 0x00, 0x00, 0x40, 0xcf, 0xff, 0xff,
  0x14, 0x00, 0x00, 0x00, 0x12, 0x00, 0x00, 0x00, 0x18, 0x00, 0x00, 0x00,
  0x30, 0x00, 0x00, 0x00, 0x20, 0x00, 0x00, 0x00, 0x02, 0x00, 0x00, 0x00,
  0x01, 0x00, 0x00, 0x00, 0x04, 0x00, 0x00, 0x00, 0x08, 0x00, 0x00, 0x00,
  0x49, 0x64, 0x65, 0x6e, 0x74, 0x69, 0x74, 0x79, 0x00, 0x00, 0x00, 0x00,
  0x02, 0x00, 0x00, 0x00, 0xff, 0xff, 0xff, 0xff, 0x04, 0x00, 0x00, 0x00,
  0x24, 0xd0, 0xff, 0xff, 0x00, 0x00, 0x0e, 0x00, 0x18, 0x00, 0x08, 0x00,
  0x0c, 0x00, 0x10, 0x00, 0x07, 0x00, 0x14, 0x00, 0x0e, 0x00, 0x00, 0x00,
  0x00, 0x00, 0x00, 0x08, 0x03, 0x00, 0x00, 0x00, 0x18, 0x00, 0x00, 0x00,
  0x0c, 0x00, 0x00, 0x00, 0x04, 0x00, 0x00, 0x00, 0x40, 0xcf, 0xff, 0xff,
  0x01, 0x00, 0x00, 0x00, 0x10, 0x00, 0x00, 0x00, 0x03, 0x00, 0x00, 0x00,
  0x0f, 0x00, 0x00, 0x00, 0x07, 0x00, 0x00, 0x00, 0x04, 0x00, 0x00, 0x00,
  0xc8, 0xcf, 0xff, 0xff, 0x14, 0x00, 0x00, 0x00, 0x11, 0x00, 0x00, 0x00,
  0x18, 0x00, 0x00, 0x00, 0x5c, 0x00, 0x00, 0x00, 0x4c, 0x00, 0x00, 0x00,
  0x02, 0x00, 0x00, 0x00, 0x01, 0x00, 0x00, 0x00, 0x04, 0x00, 0x00, 0x00,
  0x34, 0x00, 0x00, 0x00, 0x73, 0x65, 0x71, 0x75, 0x65, 0x6e, 0x74, 0x69,
  0x61, 0x6c, 0x2f, 0x64, 0x65, 0x6e, 0x73, 0x65, 0x5f, 0x31, 0x2f, 0x4d,
  0x61, 0x74, 0x4d, 0x75, 0x6c, 0x3b, 0x73, 0x65, 0x71, 0x75, 0x65, 0x6e,
  0x74, 0x69, 0x61, 0x6c, 0x2f, 0x64, 0x65, 0x6e, 0x73, 0x65, 0x5f, 0x31,
  0x2f, 0x42, 0x69, 0x61, 0x73, 0x41, 0x64, 0x64, 0x00, 0x00, 0x00, 0x00,
  0x02, 0x00, 0x00, 0x00, 0xff, 0xff, 0xff, 0xff, 0x04, 0x00, 0x00, 0x00,
  0xc8, 0xcf, 0xff, 0xff, 0xda, 0xfc, 0xff, 0xff, 0x00, 0x00, 0x00, 0x08,
  0x03, 0x00, 0x00, 0x00, 0x24, 0x00, 0x00, 0x00, 0x18, 0x00, 0x00, 0x00,
  0x0c, 0x00, 0x00, 0x00, 0x00, 0x00, 0x06, 0x00, 0x08, 0x00, 0x07, 0x00,
  0x06, 0x00, 0x00, 0x00, 0x00, 0x00, 0x00, 0x01, 0x01, 0x00, 0x00, 0x00,
  0x0f, 0x00, 0x00, 0x00, 0x03, 0x00, 0x00, 0x00, 0x0e, 0x00, 0x00, 0x00,
  0x06, 0x00, 0x00, 0x00, 0x03, 0x00, 0x00, 0x00, 0xe8, 0xfb, 0xff, 0xff,
  0x09, 0x00, 0x00, 0x00, 0x00, 0x00, 0x00, 0x09, 0x01, 0x00, 0x00, 0x00,
  0x88, 0xd0, 0xff, 0xff, 0x14, 0x00, 0x00, 0x00, 0x10, 0x00, 0x00, 0x00,
  0x18, 0x00, 0x00, 0x00, 0x6c, 0x00, 0x00, 0x00, 0x5c, 0x00, 0x00, 0x00,
  0x02, 0x00, 0x00, 0x00, 0x01, 0x00, 0x00, 0x00, 0x10, 0x00, 0x00, 0x00,
  0x46, 0x00, 0x00, 0x00, 0x73, 0x65, 0x71, 0x75, 0x65, 0x6e, 0x74, 0x69,
  0x61, 0x6c, 0x2f, 0x64, 0x65, 0x6e, 0x73, 0x65, 0x2f, 0x4d, 0x61, 0x74,
  0x4d, 0x75, 0x6c, 0x3b, 0x73, 0x65, 0x71, 0x75, 0x65, 0x6e, 0x74, 0x69,
  0x61, 0x6c, 0x2f, 0x64, 0x65, 0x6e, 0x73, 0x65, 0x2f, 0x52, 0x65, 0x6c,
  0x75, 0x3b, 0x73, 0x65, 0x71, 0x75, 0x65, 0x6e, 0x74, 0x69, 0x61, 0x6c,
  0x2f, 0x64, 0x65, 0x6e, 0x73, 0x65, 0x2f, 0x42, 0x69, 0x61, 0x73, 0x41,
  0x64, 0x64, 0x00, 0x00, 0x02, 0x00, 0x00, 0x00, 0xff, 0xff, 0xff, 0xff,
  0x10, 0x00, 0x00, 0x00, 0xa8, 0xd1, 0xff, 0xff, 0x00, 0x00, 0x0a, 0x00,
  0x10, 0x00, 0x04, 0x00, 0x08, 0x00, 0x0c, 0x00, 0x0a, 0x00, 0x00, 0x00,
  0x02, 0x00, 0x00, 0x00, 0x10, 0x00, 0x00, 0x00, 0x04, 0x00, 0x00, 0x00,
  0x01, 0x00, 0x00, 0x00, 0x0e, 0x00, 0x00, 0x00, 0x02, 0x00, 0x00, 0x00,
  0x0d, 0x00, 0x00, 0x00, 0x05, 0x00, 0x00, 0x00, 0xa8, 0xfc, 0xff, 0xff,
  0x16, 0x00, 0x00, 0x00, 0x00, 0x00, 0x00, 0x16, 0x01, 0x00, 0x00, 0x00,
  0x48, 0xd1, 0xff, 0xff, 0x14, 0x00, 0x00, 0x00, 0x0f, 0x00, 0x00, 0x00,
  0x18, 0x00, 0x00, 0x00, 0x40, 0x00, 0x00, 0x00, 0x30, 0x00, 0x00, 0x00,
  0x02, 0x00, 0x00, 0x00, 0x01, 0x00, 0x00, 0x00, 0x70, 0x00, 0x00, 0x00,
  0x1a, 0x00, 0x00, 0x00, 0x73, 0x65, 0x71, 0x75, 0x65, 0x6e, 0x74, 0x69,
  0x61, 0x6c, 0x2f, 0x66, 0x6c, 0x61, 0x74, 0x74, 0x65, 0x6e, 0x2f, 0x52,
  0x65, 0x73, 0x68, 0x61, 0x70, 0x65, 0x00, 0x00, 0x02, 0x00, 0x00, 0x00,
  0xff, 0xff, 0xff, 0xff, 0x70, 0x00, 0x00, 0x00, 0x2c, 0xd1, 0xff, 0xff,
  0x3e, 0xfe, 0xff, 0xff, 0x00, 0x00, 0x00, 0x05, 0x01, 0x00, 0x00, 0x00,
  0x38, 0x00, 0x00, 0x00, 0x2c, 0x00, 0x00, 0x00, 0x14, 0x00, 0x00, 0x00,
  0x00, 0x00, 0x0e, 0x00, 0x14, 0x00, 0x00, 0x00, 0x10, 0x00, 0x0c, 0x00,
  0x08, 0x00, 0x04, 0x00, 0x0e, 0x00, 0x00, 0x00, 0x03, 0x00, 0x00, 0x00,
  0x01, 0x00, 0x00, 0x00, 0x03, 0x00, 0x00, 0x00, 0x01, 0x00, 0x00, 0x00,
  0x01, 0x00, 0x00, 0x00, 0x0d, 0x00, 0x00, 0x00, 0x01, 0x00, 0x00, 0x00,
  0x0c, 0x00, 0x00, 0x00, 0xe8, 0xd1, 0xff, 0xff, 0x14, 0x00, 0x00, 0x00,
  0x0e, 0x00, 0x00, 0x00, 0x20, 0x00, 0x00, 0x00, 0x58, 0x00, 0x00, 0x00,
  0x40, 0x00, 0x00, 0x00, 0x04, 0x00, 0x00, 0x00, 0x01, 0x00, 0x00, 0x00,
  0x07, 0x00, 0x00, 0x00, 0x01, 0x00, 0x00, 0x00, 0x10, 0x00, 0x00, 0x00,
  0x22, 0x00, 0x00, 0x00, 0x73, 0x65, 0x71, 0x75, 0x65, 0x6e, 0x74, 0x69,
  0x61, 0x6c, 0x2f, 0x6d, 0x61, 0x78, 0x5f, 0x70, 0x6f, 0x6f, 0x6c, 0x69,
  0x6e, 0x67, 0x32, 0x64, 0x5f, 0x31, 0x2f, 0x4d, 0x61, 0x78, 0x50, 0x6f,
  0x6f, 0x6c, 0x00, 0x00, 0x04, 0x00, 0x00, 0x00, 0xff, 0xff, 0xff, 0xff,
  0x07, 0x00, 0x00, 0x00, 0x01, 0x00, 0x00, 0x00, 0x10, 0x00, 0x00, 0x00,
  0xe4, 0xd1, 0xff, 0xff, 0x1a, 0xfe, 0xff, 0xff, 0x00, 0x00, 0x00, 0x01,
  0x24, 0x00, 0x00, 0x00, 0x18, 0x00, 0x00, 0x00, 0x04, 0x00, 0x00, 0x00,
  0x0c, 0xfe, 0xff, 0xff, 0x01, 0x00, 0x00, 0x00, 0x01, 0x00, 0x00, 0x00,
  0x00, 0x00, 0x00, 0x01, 0x01, 0x00, 0x00, 0x00, 0x0c, 0x00, 0x00, 0x00,
  0x03, 0x00, 0x00, 0x00, 0x0b, 0x00, 0x00, 0x00, 0x09, 0x00, 0x00, 0x00,
  0x02, 0x00, 0x00, 0x00, 0x90, 0xd2, 0xff, 0xff, 0x14, 0x00, 0x00, 0x00,
  0x0d, 0x00, 0x00, 0x00, 0x20, 0x00, 0x00, 0x00, 0xb8, 0x00, 0x00, 0x00,
  0xa0, 0x00, 0x00, 0x00, 0x04, 0x00, 0x00, 0x00, 0x01, 0x00, 0x00, 0x00,
  0x15, 0x00, 0x00, 0x00, 0x01, 0x00, 0x00, 0x00, 0x10, 0x00, 0x00, 0x00,
  0x83, 0x00, 0x00, 0x00, 0x73, 0x65, 0x71, 0x75, 0x65, 0x6e, 0x74, 0x69,
  0x61, 0x6c, 0x2f, 0x63, 0x6f, 0x6e, 0x76, 0x32, 0x64, 0x5f, 0x31, 0x2f,
  0x52, 0x65, 0x6c, 0x75, 0x3b, 0x73, 0x65, 0x71, 0x75, 0x65, 0x6e, 0x74,
  0x69, 0x61, 0x6c, 0x2f, 0x63, 0x6f, 0x6e, 0x76, 0x32, 0x64, 0x5f, 0x31,
  0x2f, 0x42, 0x69, 0x61, 0x73, 0x41, 0x64, 0x64, 0x3b, 0x73, 0x65, 0x71,
  0x75, 0x65, 0x6e, 0x74, 0x69, 0x61, 0x6c, 0x2f, 0x63, 0x6f, 0x6e, 0x76,
  0x32, 0x64, 0x5f, 0x31, 0x2f, 0x43, 0x6f, 0x6e, 0x76, 0x32, 0x44, 0x3b,
  0x73, 0x65, 0x71, 0x75, 0x65, 0x6e, 0x74, 0x69, 0x61, 0x6c, 0x2f, 0x63,
  0x6f, 0x6e, 0x76, 0x32, 0x64, 0x5f, 0x31, 0x2f, 0x42, 0x69, 0x61, 0x73,
  0x41, 0x64, 0x64, 0x2f, 0x52, 0x65, 0x61, 0x64, 0x56, 0x61, 0x72, 0x69,
  0x61, 0x62, 0x6c, 0x65, 0x4f, 0x70, 0x2f, 0x72, 0x65, 0x73, 0x6f, 0x75,
  0x72, 0x63, 0x65, 0x00, 0x04, 0x00, 0x00, 0x00, 0xff, 0xff, 0xff, 0xff,
  0x15, 0x00, 0x00, 0x00, 0x01, 0x00, 0x00, 0x00, 0x10, 0x00, 0x00, 0x00,
  0xfc, 0xd3, 0xff, 0xff, 0x00, 0x00, 0x0e, 0x00, 0x1a, 0x00, 0x08, 0x00,
  0x0c, 0x00, 0x10, 0x00, 0x07, 0x00, 0x14, 0x00, 0x0e, 0x00, 0x00, 0x00,
  0x00, 0x00, 0x00, 0x05, 0x01, 0x00, 0x00, 0x00, 0x3c, 0x00, 0x00, 0x00,
  0x30, 0x00, 0x00, 0x00, 0x14, 0x00, 0x00, 0x00, 0x00, 0x00, 0x0e, 0x00,
  0x18, 0x00, 0x17, 0x00, 0x10, 0x00, 0x0c, 0x00, 0x08, 0x00, 0x04, 0x00,
  0x0e, 0x00, 0x00, 0x00, 0x03, 0x00, 0x00, 0x00, 0x03, 0x00, 0x00, 0x00,
  0x03, 0x00, 0x00, 0x00, 0x03, 0x00, 0x00, 0x00, 0x00, 0x00, 0x00, 0x01,
  0x01, 0x00, 0x00, 0x00, 0x0b, 0x00, 0x00, 0x00, 0x01, 0x00, 0x00, 0x00,
  0x0a, 0x00, 0x00, 0x00, 0x2c, 0xff, 0xff, 0xff, 0x11, 0x00, 0x00, 0x00,
  0x00, 0x00, 0x00, 0x11, 0x01, 0x00, 0x00, 0x00, 0xcc, 0xd3, 0xff, 0xff,
  0x14, 0x00, 0x00, 0x00, 0x0c, 0x00, 0x00, 0x00, 0x20, 0x00, 0x00, 0x00,
  0x58, 0x00, 0x00, 0x00, 0x40, 0x00, 0x00, 0x00, 0x04, 0x00, 0x00, 0x00,
  0x01, 0x00, 0x00, 0x00, 0x15, 0x00, 0x00, 0x00, 0x01, 0x00, 0x00, 0x00,
  0x08, 0x00, 0x00, 0x00, 0x20, 0x00, 0x00, 0x00, 0x73, 0x65, 0x71, 0x75,
  0x65, 0x6e, 0x74, 0x69, 0x61, 0x6c, 0x2f, 0x6d, 0x61, 0x78, 0x5f, 0x70,
  0x6f, 0x6f, 0x6c, 0x69, 0x6e, 0x67, 0x32, 0x64, 0x2f, 0x4d, 0x61, 0x78,
  0x50, 0x6f, 0x6f, 0x6c, 0x00, 0x00, 0x00, 0x00, 0x04, 0x00, 0x00, 0x00,
  0xff, 0xff, 0xff, 0xff, 0x15, 0x00, 0x00, 0x00, 0x01, 0x00, 0x00, 0x00,
  0x08, 0x00, 0x00, 0x00, 0xd8, 0xd4, 0xff, 0xff, 0x00, 0x00, 0x0e, 0x00,
  0x14, 0x00, 0x00, 0x00, 0x08, 0x00, 0x0c, 0x00, 0x07, 0x00, 0x10, 0x00,
  0x0e, 0x00, 0x00, 0x00, 0x00, 0x00, 0x00, 0x01, 0x30, 0x00, 0x00, 0x00,
  0x24, 0x00, 0x00, 0x00, 0x10, 0x00, 0x00, 0x00, 0x0c, 0x00, 0x10, 0x00,
  0x00, 0x00, 0x04, 0x00, 0x08, 0x00, 0x0f, 0x00, 0x0c, 0x00, 0x00, 0x00,
  0x01, 0x00, 0x00, 0x00, 0x01, 0x00, 0x00, 0x00, 0x00, 0x00, 0x00, 0x01,
  0x01, 0x00, 0x00, 0x00, 0x0a, 0x00, 0x00, 0x00, 0x03, 0x00, 0x00, 0x00,
  0x00, 0x00, 0x00, 0x00, 0x08, 0x00, 0x00, 0x00, 0x01, 0x00, 0x00, 0x00,
  0x0c, 0x00, 0x10, 0x00, 0x0b, 0x00, 0x00, 0x00, 0x0c, 0x00, 0x04, 0x00,
  0x0c, 0x00, 0x00, 0x00, 0x03, 0x00, 0x00, 0x00, 0x00, 0x00, 0x00, 0x03,
  0x01, 0x00, 0x00, 0x00, 0xac, 0xd4, 0xff, 0xff, 0x14, 0x00, 0x00, 0x00,
  0x0b, 0x00, 0x00, 0x00, 0x20, 0x00, 0x00, 0x00, 0xb0, 0x00, 0x00, 0x00,
  0x98, 0x00, 0x00, 0x00, 0x04, 0x00, 0x00, 0x00, 0x01, 0x00, 0x00, 0x00,
  0x40, 0x00, 0x00, 0x00, 0x03, 0x00, 0x00, 0x00, 0x08, 0x00, 0x00, 0x00,
  0x7b, 0x00, 0x00, 0x00, 0x73, 0x65, 0x71, 0x75, 0x65, 0x6e, 0x74, 0x69,
  0x61, 0x6c, 0x2f, 0x63, 0x6f, 0x6e, 0x76, 0x32, 0x64, 0x2f, 0x52, 0x65,
  0x6c, 0x75, 0x3b, 0x73, 0x65, 0x71, 0x75, 0x65, 0x6e, 0x74, 0x69, 0x61,
  0x6c, 0x2f, 0x63, 0x6f, 0x6e, 0x76, 0x32, 0x64, 0x2f, 0x42, 0x69, 0x61,
  0x73, 0x41, 0x64, 0x64, 0x3b, 0x73, 0x65, 0x71, 0x75, 0x65, 0x6e, 0x74,
  0x69, 0x61, 0x6c, 0x2f, 0x63, 0x6f, 0x6e, 0x76, 0x32, 0x64, 0x2f, 0x43,
  0x6f, 0x6e, 0x76, 0x32, 0x44, 0x3b, 0x73, 0x65, 0x71, 0x75, 0x65, 0x6e,
  0x74, 0x69, 0x61, 0x6c, 0x2f, 0x63, 0x6f, 0x6e, 0x76, 0x32, 0x64, 0x2f,
  0x42, 0x69, 0x61, 0x73, 0x41, 0x64, 0x64, 0x2f, 0x52, 0x65, 0x61, 0x64,
  0x56, 0x61, 0x72, 0x69, 0x61, 0x62, 0x6c, 0x65, 0x4f, 0x70, 0x2f, 0x72,
  0x65, 0x73, 0x6f, 0x75, 0x72, 0x63, 0x65, 0x00, 0x04, 0x00, 0x00, 0x00,
  0xff, 0xff, 0xff, 0xff, 0x40, 0x00, 0x00, 0x00, 0x03, 0x00, 0x00, 0x00,
  0x08, 0x00, 0x00, 0x00, 0x00, 0xd5, 0xff, 0xff, 0x0a, 0xd6, 0xff, 0xff,
  0x04, 0x00, 0x00, 0x00, 0x00, 0x08, 0x00, 0x00, 0xad, 0x5a, 0xb2, 0xbb,
  0xd5, 0x74, 0xa7, 0x3c, 0xea, 0x34, 0xc2, 0xbd, 0x39, 0x7c, 0xa2, 0xbe,
  0x31, 0x85, 0xf7, 0xbc, 0x89, 0xdc, 0x39, 0xbe, 0xd7, 0xf0, 0x11, 0x3d,
  0x9c, 0x00, 0x05, 0xbe, 0xe1, 0x64, 0x51, 0x3e, 0x30, 0x30, 0x10, 0x3d,
  0x02, 0x60, 0xac, 0xbc, 0x81, 0xd2, 0x5d, 0xbe, 0x4b, 0x95, 0x17, 0xbd,
  0xf6, 0x16, 0xe7, 0xbd, 0x54, 0x9c, 0x89, 0xbb, 0x7b, 0xd8, 0x05, 0xbe,
  0x40, 0x31, 0x8d, 0xbd, 0xb0, 0xe9, 0x44, 0x3e, 0xb8, 0xda, 0x82, 0xbe,
  0xc8, 0xb9, 0x7b, 0xbf, 0x52, 0x53, 0x43, 0x3d, 0x3a, 0xc9, 0xe4, 0x3d,
  0xd0, 0x27, 0xc9, 0xbe, 0x61, 0x03, 0x41, 0x3e, 0x68, 0xbc, 0x18, 0xbe,
  0x69, 0x15, 0xf9, 0x3c, 0xb0, 0xdc, 0x12, 0xbd, 0xb0, 0xe5, 0x92, 0x3e,
  0x50, 0x79, 0x65, 0xbd, 0xfc, 0x39, 0xd2, 0xbd, 0x91, 0x26, 0x1a, 0xbd,
  0x8b, 0xac, 0xf1, 0x3d, 0x48, 0x24, 0x5a, 0xbd, 0x82, 0x5e, 0xad, 0xbe,
  0x98, 0xd3, 0xb4, 0x3d, 0xe7, 0x3d, 0x42, 0xbf, 0xe6, 0xfa, 0x78, 0xbe,
  0xc0, 0x4d, 0x42, 0xbf, 0x43, 0x14, 0x1f, 0xbe, 0xb2, 0x6f, 0xfb, 0xbd,
  0x68, 0xb3, 0xde, 0xbd, 0x0a, 0x59, 0x74, 0xbe, 0xda, 0xbe, 0x17, 0xbe,
  0xaf, 0x19, 0x7a, 0xbd, 0xe8, 0x6c, 0xa8, 0x3e, 0x23, 0x02, 0x3c, 0xbc,
  0xb7, 0x5a, 0x97, 0x3e, 0x64, 0x04, 0x86, 0xbd, 0x2a, 0x3e, 0x2d, 0xbe,
  0x55, 0xd2, 0x9c, 0xbd, 0xd7, 0x11, 0xcf, 0xbd, 0xbd, 0x5d, 0x84, 0xbc,
  0x3d, 0x43, 0xa6, 0xbc, 0x5a, 0x41, 0xf1, 0x3c, 0xd7, 0x1b, 0xa4, 0xbe,
  0xd5, 0x51, 0x42, 0xbe, 0x19, 0xf8, 0x79, 0x3d, 0x29, 0x54, 0xaf, 0xbd,
  0xe4, 0x81, 0xec, 0x3d, 0x6a, 0x3a, 0xb2, 0x3d, 0x11, 0x25, 0x6e, 0x3e,
  0x94, 0xe2, 0x82, 0xbd, 0x19, 0xbc, 0x55, 0xbe, 0x81, 0x14, 0x45, 0xbd,
  0xe8, 0xa5, 0x96, 0xbc, 0x68, 0x1a, 0x64, 0xbe, 0xad, 0x45, 0x05, 0xbd,
  0xf4, 0xee, 0xd4, 0xbd, 0x47, 0x8e, 0x71, 0xbe, 0x32, 0x62, 0x4d, 0xbe,
  0x79, 0x66, 0x30, 0xbc, 0x25, 0x80, 0xc5, 0xbe, 0x00, 0x02, 0x21, 0xbd,
  0xc7, 0xd6, 0x1c, 0xbe, 0x2a, 0xdb, 0x1b, 0xbd, 0xd4, 0x56, 0x0b, 0xbd,
  0x75, 0xaf, 0x30, 0xbe, 0x94, 0xa2, 0x62, 0x3d, 0x2d, 0x8c, 0xcb, 0xbd,
  0x68, 0x37, 0x47, 0xbe, 0x33, 0xf7, 0x92, 0xbd, 0x57, 0xff, 0x44, 0x3e,
  0xdd, 0xd5, 0x93, 0x3c, 0x87, 0xa8, 0x12, 0xbd, 0x00, 0x05, 0x49, 0xbd,
  0x36, 0x49, 0xac, 0xbd, 0x9f, 0x9c, 0xfc, 0x3c, 0x79, 0x89, 0x84, 0x3e,
  0x58, 0x9d, 0xb5, 0x3d, 0x71, 0xe5, 0x42, 0x3e, 0x6a, 0x62, 0x4a, 0xbb,
  0x2c, 0x9e, 0xe3, 0xbd, 0x30, 0x1f, 0xce, 0x3e, 0xd6, 0x4d, 0xf6, 0xbd,
  0x2d, 0xf0, 0x81, 0xbc, 0xa0, 0x14, 0xe6, 0x3e, 0xe8, 0xd0, 0xb8, 0x3e,
  0x19, 0xcd, 0x8b, 0xbe, 0x68, 0xdd, 0x34, 0x3d, 0x5d, 0x05, 0x19, 0xbd,
  0x7f, 0xb8, 0x33, 0xbf, 0xf7, 0x2d, 0x07, 0xbd, 0x22, 0xc1, 0xdd, 0x3e,
  0x39, 0xfc, 0x17, 0xbf, 0x10, 0x54, 0x9f, 0x3d, 0xd0, 0x27, 0x9b, 0x3e,
  0x65, 0x94, 0xf3, 0xbd, 0x68, 0x9d, 0xb1, 0xbc, 0x59, 0xde, 0xe9, 0x3c,
  0x73, 0xae, 0x59, 0x3e, 0xae, 0x14, 0x22, 0xbe, 0xf2, 0x36, 0x2f, 0xbd,
  0xc5, 0x5b, 0x1b, 0xbf, 0xa7, 0xfc, 0x14, 0xbd, 0xd3, 0x5d, 0xec, 0xbd,
  0xfa, 0xa6, 0xbb, 0xbc, 0xc7, 0xfc, 0x67, 0x3e, 0xe2, 0xd8, 0x7d, 0xbe,
  0xd4, 0x20, 0xc8, 0xbe, 0x4c, 0x36, 0x89, 0x3e, 0xf6, 0xd5, 0x39, 0xbe,
  0xfa, 0xc1, 0x99, 0xbd, 0x96, 0x94, 0x80, 0xbc, 0x16, 0x6c, 0xf1, 0xbd,
  0x74, 0x56, 0x2c, 0xbe, 0xf6, 0x10, 0x60, 0xbe, 0x1a, 0x50, 0xbc, 0xba,
  0xaf, 0xfe, 0x41, 0xbc, 0x0c, 0xb2, 0x89, 0xbc, 0xeb, 0x99, 0x00, 0x3e,
  0xb4, 0x3d, 0xb9, 0xbe, 0xdf, 0x6b, 0xf5, 0x3e, 0x4b, 0xba, 0x2a, 0xbd,
  0xfd, 0xd3, 0x84, 0x3d, 0x93, 0x50, 0xd7, 0xbe, 0xef, 0x26, 0x8b, 0x3e,
  0xb1, 0x71, 0xe9, 0xbe, 0x96, 0xe5, 0x3c, 0x3e, 0x99, 0xb3, 0x60, 0xbe,
  0xa2, 0xce, 0x86, 0xbd, 0xd7, 0xb1, 0x7a, 0xbd, 0x52, 0xcd, 0x44, 0xbd,
  0x82, 0xb8, 0xc1, 0xbe, 0x49, 0x6b, 0x3b, 0x3e, 0xaf, 0x31, 0x0d, 0xbe,
  0x39, 0xa7, 0x97, 0xbc, 0x7d, 0xa9, 0x8f, 0xbd, 0xb5, 0x66, 0x03, 0xbe,
  0xbe, 0x2b, 0x41, 0xbc, 0x4f, 0x12, 0x7c, 0xbe, 0x95, 0x4a, 0xdf, 0xbd,
  0x28, 0xe6, 0x35, 0x3e, 0x06, 0x65, 0x44, 0x3e, 0x11, 0xc2, 0x98, 0xbe,
  0xc3, 0xbe, 0x7e, 0xbd, 0x28, 0xa1, 0x2c, 0xbe, 0x0a, 0xa2, 0xb0, 0xbd,
  0x2d, 0xb4, 0xc8, 0xbe, 0xd7, 0x7d, 0x9b, 0x3e, 0x63, 0xf6, 0x93, 0xbe,
  0xea, 0x59, 0x35, 0x3d, 0xb5, 0x3f, 0x87, 0x3d, 0x9e, 0xf9, 0xd3, 0xbe,
  0xc7, 0x3c, 0x4d, 0xbd, 0x85, 0x2a, 0x9f, 0xbd, 0x10, 0x67, 0x96, 0x3e,
  0xbd, 0xc8, 0x04, 0x3f, 0x2d, 0x2e, 0x08, 0x3e, 0xe3, 0xb3, 0x7b, 0xbd,
  0xa5, 0xf9, 0xc1, 0x3d, 0x8d, 0xb8, 0xdc, 0xbe, 0x33, 0xb3, 0xe5, 0xbd,
  0x7b, 0xd4, 0xa1, 0xbd, 0xca, 0x4e, 0x83, 0x3d, 0x3d, 0x0f, 0xa0, 0xbd,
  0x84, 0xbe, 0xa2, 0xbd, 0xa3, 0x33, 0xd2, 0x3d, 0x37, 0xbe, 0x0f, 0xbd,
  0x83, 0x5b, 0xbd, 0xbe, 0x9d, 0x0f, 0xf8, 0xbd, 0x17, 0xcb, 0xad, 0xbd,
  0xc4, 0x75, 0x9d, 0xbc, 0xcc, 0x61, 0xd7, 0x3e, 0xf0, 0x70, 0x4a, 0x3c,
  0x24, 0x43, 0x3b, 0x3d, 0x05, 0xd6, 0xad, 0x3d, 0xac, 0xdc, 0xc8, 0xbe,
  0x59, 0x5b, 0xa6, 0xbd, 0x97, 0xf9, 0xc1, 0xbb, 0x1a, 0x24, 0x80, 0x3d,
  0xe6, 0x60, 0xe1, 0x3c, 0x93, 0xac, 0x0e, 0x3e, 0xa5, 0xac, 0x04, 0xbf,
  0x74, 0xaf, 0xc9, 0x3e, 0xc9, 0x17, 0xb9, 0xbe, 0x08, 0x02, 0xba, 0x3e,
  0xa2, 0xfb, 0x50, 0x3d, 0x3e, 0xd7, 0x8b, 0x3e, 0x13, 0xc6, 0x08, 0xbf,
  0x77, 0x5c, 0x12, 0x3c, 0xa1, 0x9f, 0x22, 0xbe, 0x20, 0xf7, 0xa1, 0xbd,
  0x4b, 0xea, 0xa6, 0xbd, 0x69, 0xd8, 0xc1, 0xbd, 0x22, 0xdf, 0x41, 0x3d,
  0x57, 0x80, 0xb4, 0xbe, 0x2a, 0x9c, 0xbf, 0xbc, 0xb7, 0x26, 0x57, 0xbd,
  0x29, 0x4f, 0x97, 0xbc, 0x0e, 0x2b, 0x0e, 0xbe, 0xf4, 0xfe, 0xaa, 0xbd,
  0x65, 0x33, 0x17, 0xbe, 0xc7, 0x5a, 0xd7, 0xbc, 0xb9, 0x02, 0x5c, 0xbe,
  0xbd, 0x27, 0xdd, 0x3d, 0xbc, 0xa3, 0x3e, 0xbd, 0x56, 0x2e, 0x64, 0x3e,
  0x87, 0xce, 0x3a, 0xbe, 0x68, 0x5e, 0x67, 0xbd, 0x3e, 0x3b, 0x05, 0xbe,
  0xe4, 0xe0, 0x85, 0xbc, 0xae, 0xe4, 0x1e, 0xbe, 0x33, 0x82, 0x6f, 0x3e,
  0xbb, 0x04, 0x19, 0xbe, 0xb7, 0x5c, 0xa2, 0xbe, 0x85, 0x4c, 0x15, 0xbf,
  0x1d, 0x5a, 0x09, 0xbf, 0xad, 0xfb, 0xa8, 0xbe, 0xf5, 0x82, 0x04, 0xbf,
  0x18, 0xee, 0xb1, 0xbe, 0x63, 0xe1, 0x80, 0xbe, 0x73, 0x3b, 0xd6, 0x3c,
  0xfa, 0x9f, 0x83, 0xbd, 0x0e, 0x70, 0xa8, 0xbc, 0xea, 0x35, 0x4e, 0xbc,
  0xfe, 0xeb, 0xde, 0xbd, 0xe4, 0x03, 0xb0, 0x3d, 0xd6, 0x75, 0x91, 0xbe,
  0x6f, 0xdd, 0x99, 0xbd, 0x3c, 0xe8, 0xa4, 0x3e, 0xd7, 0xdf, 0x3a, 0xbe,
  0x42, 0xff, 0x08, 0xbe, 0xd4, 0x81, 0x4a, 0xbc, 0x18, 0x00, 0x24, 0x3e,
  0x28, 0x2c, 0xed, 0xbd, 0xf8, 0xa0, 0x15, 0xbe, 0xe0, 0xa1, 0x5d, 0x3d,
  0xcc, 0xc2, 0x2a, 0xbe, 0x61, 0x86, 0x69, 0xbd, 0x32, 0xed, 0xa2, 0xbd,
  0xe7, 0x2f, 0x76, 0xbd, 0xaf, 0xc6, 0x97, 0x3d, 0x11, 0xc5, 0x85, 0xbd,
  0xff, 0xc4, 0x81, 0xbd, 0x0a, 0x28, 0xa6, 0xbc, 0x35, 0x40, 0xc2, 0x3d,
  0x1b, 0xf9, 0x9c, 0x3c, 0x5e, 0x7e, 0xb9, 0x3c, 0xf4, 0xee, 0xc8, 0xbe,
  0x04, 0x6d, 0xe8, 0x3e, 0xc8, 0xe6, 0x2e, 0xbb, 0xb4, 0xaa, 0x8b, 0xba,
  0x9e, 0xdb, 0x2a, 0xbe, 0x82, 0x18, 0xe2, 0x3c, 0x6e, 0xd1, 0xcb, 0xbd,
  0xfa, 0xda, 0xd1, 0x3b, 0x73, 0xa2, 0x08, 0xbf, 0x9c, 0x76, 0x19, 0x3d,
  0xa4, 0x02, 0x73, 0xbd, 0xf2, 0xe4, 0x1e, 0xbb, 0x43, 0xaa, 0xa2, 0xbe,
  0xf3, 0x6e, 0x7f, 0x3a, 0xf7, 0xf6, 0xdd, 0xbd, 0x4d, 0xe3, 0x72, 0xbb,
  0xbf, 0x6e, 0xd6, 0xbe, 0x49, 0x42, 0x21, 0x3d, 0x0f, 0x67, 0x4b, 0x3d,
  0x3d, 0x60, 0x64, 0xbd, 0x8f, 0x59, 0x56, 0xbe, 0x39, 0x5c, 0x93, 0x3d,
  0xd7, 0x86, 0x34, 0x3d, 0x1f, 0xdd, 0x80, 0xbd, 0x72, 0xfc, 0xbd, 0xbe,
  0x7f, 0xf4, 0xe3, 0xbc, 0xfe, 0x11, 0x63, 0x3d, 0x61, 0x81, 0x14, 0xbe,
  0x6d, 0x74, 0x04, 0xbe, 0xff, 0xd2, 0x22, 0x3d, 0x7d, 0x24, 0xfb, 0x3c,
  0x48, 0x38, 0xb0, 0xbc, 0x5f, 0x80, 0x5b, 0x3e, 0x95, 0xb2, 0x9f, 0x3e,
  0x06, 0xc4, 0xf7, 0x3c, 0xbc, 0x6d, 0x3b, 0x3e, 0xed, 0x2a, 0xbf, 0xbd,
  0x72, 0xa3, 0xb1, 0x3c, 0xec, 0x17, 0xdd, 0xbd, 0x04, 0x53, 0x28, 0xbd,
  0x06, 0xa3, 0x48, 0x3d, 0x3a, 0xf5, 0x05, 0xbd, 0xfa, 0xed, 0x19, 0xbd,
  0xef, 0xe0, 0x0c, 0xbe, 0xa1, 0x93, 0x17, 0x3e, 0x76, 0xfe, 0x12, 0x3d,
  0x80, 0x38, 0xb5, 0xbd, 0x48, 0xb0, 0x5b, 0xbd, 0x7f, 0xd4, 0xb4, 0x3b,
  0x8c, 0x20, 0xe3, 0x3d, 0xde, 0x90, 0x2b, 0x3c, 0x69, 0xb4, 0x6d, 0xbd,
  0x39, 0xff, 0x1c, 0xbe, 0x62, 0x38, 0x42, 0xbe, 0xb5, 0x8f, 0x09, 0xbe,
  0x65, 0xf4, 0xc7, 0xbc, 0x6f, 0xa9, 0xa2, 0x3c, 0x3d, 0x9e, 0x38, 0x3c,
  0x68, 0xaa, 0x8e, 0xbd, 0x6e, 0x64, 0x89, 0xbd, 0x44, 0xf1, 0x26, 0xbd,
  0x80, 0xe6, 0x0c, 0xbe, 0x1a, 0x87, 0x43, 0x3e, 0x2d, 0xc9, 0x93, 0x3e,
  0x9c, 0x9c, 0xe0, 0xbc, 0x09, 0xae, 0xf8, 0xbd, 0x8d, 0x45, 0xd1, 0x3c,
  0x06, 0x41, 0x9a, 0x3d, 0x69, 0xbb, 0x07, 0x3f, 0x1e, 0xfa, 0x12, 0x3e,
  0x29, 0x16, 0x4e, 0xbb, 0xc1, 0xc1, 0x18, 0xbe, 0xdb, 0x48, 0x7a, 0xbd,
  0x63, 0x68, 0x7d, 0xbe, 0x93, 0x2f, 0x11, 0xbe, 0x62, 0xdf, 0xa3, 0xbb,
  0x6e, 0xb1, 0xc0, 0xbd, 0xae, 0xe4, 0xec, 0x3d, 0x85, 0x0a, 0xc0, 0x3d,
  0x4b, 0xd3, 0x0b, 0x3c, 0x4b, 0xb0, 0x98, 0xbd, 0x61, 0xfb, 0x5d, 0xbe,
  0xae, 0x38, 0x9f, 0xbe, 0xa5, 0xc5, 0x11, 0xbd, 0xbf, 0x3f, 0xf8, 0xbc,
  0xed, 0xfe, 0x67, 0x3d, 0x66, 0xda, 0xd7, 0x3c, 0x7c, 0x4b, 0xa3, 0x3d,
  0xfc, 0xd7, 0x80, 0xbd, 0x5b, 0x15, 0x00, 0xbe, 0x26, 0x8a, 0x3a, 0xbe,
  0xc5, 0xfc, 0x8e, 0xbc, 0xb1, 0x0d, 0x8b, 0x3d, 0xef, 0x0c, 0x9f, 0x3e,
  0x12, 0x13, 0xc0, 0xbe, 0x44, 0xf8, 0x93, 0x3d, 0xcd, 0xe8, 0x66, 0xbd,
  0xe7, 0xe2, 0xcc, 0xbd, 0x55, 0x36, 0x69, 0x3c, 0x44, 0xd3, 0x54, 0xbe,
  0xc9, 0x50, 0x2d, 0xbd, 0x4c, 0x0c, 0xeb, 0xbd, 0x0e, 0x5b, 0x93, 0x3d,
  0x5e, 0x9d, 0x04, 0xbc, 0x81, 0x60, 0xa9, 0xbc, 0xb0, 0xa7, 0x92, 0xbd,
  0x68, 0xc8, 0xfb, 0xba, 0x0e, 0x8f, 0xb8, 0xbe, 0xa1, 0xbc, 0xe4, 0xbb,
  0xe3, 0xe3, 0x13, 0xbd, 0x57, 0x92, 0xab, 0x3e, 0x8f, 0x19, 0x1a, 0xbe,
  0xfa, 0xfd, 0xd7, 0xbc, 0xfc, 0xe8, 0x85, 0xbd, 0x02, 0xb5, 0xa2, 0x3e,
  0x29, 0x88, 0xe2, 0xbc, 0xea, 0xcf, 0xe4, 0x3c, 0xcd, 0x62, 0x0d, 0x3e,
  0x71, 0x1e, 0x87, 0x3e, 0x3b, 0x5d, 0x78, 0xbe, 0xea, 0xef, 0x0d, 0xbd,
  0x5c, 0x65, 0x1b, 0xbe, 0x47, 0xf7, 0xa1, 0x3c, 0x5f, 0xbb, 0x54, 0x3c,
  0x18, 0x43, 0x01, 0xbd, 0x27, 0x08, 0x09, 0x3d, 0x91, 0x7b, 0x0d, 0x3f,
  0xa3, 0xdc, 0x4f, 0xbe, 0xe0, 0x5e, 0xfe, 0x3d, 0x09, 0x71, 0x8d, 0xbe,
  0x5c, 0x06, 0xc7, 0xbc, 0xc1, 0x0f, 0xf5, 0xbc, 0x29, 0x9a, 0x56, 0x3e,
  0x0c, 0xe0, 0x44, 0x3d, 0x57, 0x26, 0x5d, 0x3a, 0xca, 0xcc, 0xb4, 0xbe,
  0xe7, 0xce, 0x88, 0xbd, 0x13, 0x4f, 0x88, 0xbe, 0x99, 0x22, 0xae, 0xbe,
  0xa4, 0x50, 0xf9, 0xbd, 0x09, 0x13, 0x30, 0xbd, 0x81, 0x93, 0xa5, 0xbe,
  0x49, 0x91, 0x10, 0x3e, 0xb3, 0x6f, 0xad, 0xbd, 0x6d, 0x82, 0xa2, 0xbd,
  0x66, 0xc1, 0x72, 0xbd, 0x88, 0xae, 0xc8, 0xbe, 0xff, 0x40, 0xed, 0xbc,
  0x1c, 0xd0, 0xdf, 0xbc, 0xa5, 0x38, 0x81, 0xbe, 0x78, 0xce, 0x1d, 0x3e,
  0xbc, 0xe6, 0x34, 0xbc, 0xda, 0xdf, 0x7a, 0xbd, 0xb5, 0x5b, 0x61, 0xbd,
  0x54, 0x82, 0x35, 0xbe, 0x4b, 0xcb, 0xe1, 0x3d, 0x7a, 0x49, 0x1e, 0xbe,
  0x88, 0x34, 0x8a, 0x3c, 0x7b, 0x3a, 0x59, 0x3d, 0x3d, 0x2e, 0x91, 0xbd,
  0x4b, 0x0b, 0xb5, 0xbe, 0x5b, 0xd8, 0x58, 0xbe, 0x9a, 0xa4, 0x27, 0xbe,
  0xcd, 0xd7, 0x25, 0x3e, 0x5f, 0xd0, 0x0b, 0x3e, 0x2e, 0x77, 0x19, 0xbe,
  0x03, 0x99, 0xa4, 0x3d, 0x52, 0xbb, 0x78, 0x3d, 0x4e, 0xe1, 0xcd, 0xbe,
  0xa2, 0x1b, 0x97, 0x3e, 0x0f, 0x69, 0xdf, 0xbd, 0x32, 0x33, 0xcf, 0x3d,
  0x27, 0x99, 0xf7, 0xbd, 0xd6, 0x18, 0x49, 0x3e, 0x25, 0x01, 0x1d, 0xbe,
  0x51, 0x1b, 0x3d, 0x3e, 0x16, 0xf8, 0x8b, 0xbe, 0xb0, 0x0d, 0x1e, 0x3e,
  0x22, 0x44, 0x49, 0x3d, 0x81, 0xad, 0x14, 0xbe, 0x1e, 0xc7, 0x31, 0xbe,
  0xa4, 0x09, 0xdb, 0x3d, 0xab, 0xe7, 0x4b, 0xbd, 0x02, 0xbe, 0x0e, 0x3d,
  0xb2, 0xc4, 0x01, 0xbe, 0x3b, 0xab, 0xb8, 0xbd, 0xfd, 0x39, 0xa5, 0x3d,
  0x0d, 0x62, 0x1b, 0xbb, 0x10, 0x11, 0xde, 0x3d, 0x03, 0x5c, 0xb1, 0xbc,
  0x6a, 0xb6, 0x20, 0x3e, 0xbb, 0xaa, 0xa6, 0xbe, 0x14, 0x5e, 0x81, 0xbd,
  0x00, 0xe4, 0xed, 0xbd, 0xe3, 0x35, 0x44, 0xbe, 0xe4, 0x6f, 0x2a, 0xbe,
  0xfe, 0x54, 0x39, 0xbd, 0x76, 0x36, 0xfc, 0xbe, 0x1b, 0x16, 0x4d, 0x3d,
  0x0f, 0xdf, 0xef, 0xbe, 0x28, 0x2e, 0x0d, 0xbc, 0x1e, 0xd1, 0x09, 0xbe,
  0xf5, 0x77, 0x3c, 0xbe, 0x23, 0x17, 0xbc, 0xbd, 0xd6, 0x79, 0x89, 0xbd,
  0xe0, 0x91, 0xa4, 0xbe, 0x7d, 0x13, 0x45, 0x3e, 0x79, 0xcb, 0xbd, 0x3d,
  0x51, 0x60, 0x1d, 0xbc, 0xe6, 0xba, 0xbc, 0x3c, 0x1b, 0x18, 0xca, 0xbd,
  0x0f, 0x1c, 0x8c, 0x3d, 0xce, 0xff, 0xdf, 0x3d, 0x9c, 0x73, 0xc0, 0x3e,
  0x1a, 0x4c, 0x8e, 0x3c, 0xe7, 0xf5, 0x79, 0x3e, 0xfa, 0xaa, 0xe9, 0xb8,
  0x2d, 0x7d, 0xc5, 0x3d, 0x18, 0xfe, 0x68, 0x3e, 0x6f, 0x1e, 0x90, 0x3e,
  0xd7, 0x12, 0xae, 0xbd, 0xff, 0xe5, 0x90, 0x3c, 0x18, 0x21, 0x60, 0x3e,
  0xaa, 0x2f, 0xc5, 0xbe, 0x39, 0xa5, 0x98, 0xbd, 0x89, 0xa2, 0xea, 0xbd,
  0xfd, 0xcb, 0xc3, 0xbd, 0xdd, 0xf9, 0xa9, 0xbe, 0xee, 0xa8, 0x45, 0x3d,
  0x1b, 0x30, 0x05, 0xbf, 0x03, 0x24, 0x38, 0x3e, 0x9b, 0x20, 0x9a, 0x3d,
  0x9b, 0x65, 0x65, 0xbd, 0xc4, 0x02, 0x97, 0x3d, 0x08, 0xf1, 0xdf, 0xbd,
  0xb9, 0xa3, 0xfe, 0x3e, 0x4b, 0x44, 0xa8, 0xbd, 0x50, 0x91, 0x0f, 0xbe,
  0x81, 0xd6, 0x1f, 0xbe, 0xab, 0x41, 0x4c, 0x3d, 0x45, 0x91, 0x8e, 0xbe,
  0xb1, 0xfe, 0x97, 0x3d, 0x65, 0xce, 0x99, 0xbd, 0x69, 0x16, 0x11, 0x3d,
  0xe4, 0xf5, 0xfc, 0xbe, 0xe3, 0xa3, 0x2b, 0xbe, 0xcb, 0x81, 0xfe, 0xbd,
  0x46, 0xf5, 0xc6, 0x3c, 0x5b, 0x4e, 0x08, 0xbe, 0x05, 0x5b, 0xc6, 0x3c,
  0x5f, 0xec, 0xa3, 0x3c, 0xa9, 0xfa, 0xaf, 0xbd, 0xc3, 0xe2, 0xba, 0xbe,
  0x5d, 0xca, 0xb0, 0x3e, 0xe2, 0xdd, 0xff, 0xff, 0x10, 0x00, 0x00, 0x00,
  0x0a, 0x00, 0x00, 0x00, 0x1c, 0x00, 0x00, 0x00, 0x38, 0x00, 0x00, 0x00,
  0x04, 0x00, 0x00, 0x00, 0x10, 0x00, 0x00, 0x00, 0x04, 0x00, 0x00, 0x00,
  0x01, 0x00, 0x00, 0x00, 0x08, 0x00, 0x00, 0x00, 0x1a, 0x00, 0x00, 0x00,
  0x73, 0x65, 0x71, 0x75, 0x65, 0x6e, 0x74, 0x69, 0x61, 0x6c, 0x2f, 0x63,
  0x6f, 0x6e, 0x76, 0x32, 0x64, 0x5f, 0x31, 0x2f, 0x43, 0x6f, 0x6e, 0x76,
  0x32, 0x44, 0x00, 0x00, 0x58, 0xdd, 0xff, 0xff, 0x62, 0xde, 0xff, 0xff,
  0x04, 0x00, 0x00, 0x00, 0x80, 0x01, 0x00, 0x00, 0xae, 0x86, 0xea, 0xbe,
  0xe2, 0x3d, 0xbf, 0x3d, 0x12, 0xd4, 0xc3, 0xbd, 0x44, 0x25, 0xf4, 0xbd,
  0x96, 0x02, 0x4a, 0xbc, 0x02, 0xf4, 0x00, 0xbe, 0x9a, 0xe4, 0xa0, 0x3e,
  0x37, 0x5c, 0x99, 0xbc, 0x2f, 0x6a, 0x46, 0xbd, 0xdc, 0xd3, 0xa1, 0x3e,
  0xa1, 0xb1, 0x4a, 0xbd, 0x2f, 0x92, 0x71, 0x3e, 0x10, 0x5e, 0x32, 0x3e,
  0xa5, 0x02, 0x29, 0x3b, 0xcf, 0x38, 0xa3, 0x3d, 0x26, 0xd2, 0xcf, 0x3e,
  0x5f, 0xfc, 0x38, 0x3e, 0x7a, 0x61, 0x27, 0xbc, 0xc8, 0x7c, 0xaa, 0xbe,
  0xaa, 0x9f, 0xa8, 0x3c, 0x4f, 0x60, 0x9d, 0x3d, 0xe0, 0xf9, 0x64, 0xbd,
  0x12, 0xf0, 0x59, 0xbe, 0x25, 0x74, 0x5f, 0xbe, 0x1e, 0xc5, 0xf1, 0x3d,
  0x26, 0xa9, 0x31, 0xbd, 0x9c, 0xf5, 0xdd, 0xbd, 0x14, 0x3b, 0xf5, 0x3d,
  0x05, 0x36, 0xab, 0xbd, 0x56, 0x9b, 0xaa, 0xbd, 0x32, 0x94, 0xd0, 0x3d,
  0xf7, 0x49, 0xd5, 0xbd, 0x37, 0x62, 0x5e, 0xbb, 0x79, 0x78, 0xb4, 0x3d,
  0xd6, 0x98, 0x96, 0xbd, 0x7b, 0x09, 0x2d, 0x3d, 0x53, 0xdb, 0xf9, 0x3e,
  0x8b, 0x33, 0x34, 0x3d, 0xf6, 0x98, 0xb7, 0xbc, 0xbc, 0xea, 0xc4, 0x3e,
  0x2d, 0xf3, 0x12, 0x3d, 0x38, 0xba, 0x10, 0xbd, 0x9e, 0x54, 0x4d, 0x3c,
  0x87, 0xf9, 0x86, 0x3d, 0x26, 0x0f, 0x94, 0xbd, 0x79, 0x75, 0x5a, 0xbe,
  0x7b, 0xfc, 0x72, 0xbc, 0xa5, 0x4b, 0x93, 0xbd, 0xa8, 0x1d, 0xa4, 0x3e,
  0x07, 0xa6, 0x24, 0x3e, 0x81, 0x16, 0x73, 0xbd, 0x6a, 0xfb, 0xfe, 0x3b,
  0xc8, 0x80, 0x10, 0xbd, 0x5e, 0xc8, 0x56, 0x3d, 0x05, 0x8f, 0x65, 0xbe,
  0x43, 0x62, 0x03, 0xbe, 0x0f, 0xae, 0xa7, 0x3d, 0x04, 0x87, 0x19, 0xbe,
  0xb5, 0xcf, 0xd7, 0xbd, 0xf9, 0xb2, 0x5d, 0x3d, 0xad, 0x62, 0xc3, 0xbe,
  0xaf, 0x84, 0x86, 0xbd, 0xba, 0x43, 0xdb, 0xbd, 0xeb, 0xda, 0xfa, 0x3e,
  0x4f, 0xba, 0xc4, 0xbc, 0x5b, 0x35, 0x7e, 0x3d, 0x59, 0xcf, 0x43, 0x3e,
  0xf3, 0xbb, 0x41, 0x3e, 0x80, 0x97, 0x0c, 0x3e, 0x48, 0xe2, 0xa7, 0xbd,
  0xd8, 0x73, 0x4b, 0xbd, 0xd6, 0xce, 0xbb, 0xbd, 0x90, 0xcd, 0xfc, 0xbd,
  0x52, 0x09, 0x7b, 0xbe, 0x16, 0xa5, 0x30, 0xbe, 0x3b, 0x06, 0x2b, 0xbe,
  0xa5, 0xe2, 0x3d, 0x3e, 0xfe, 0x9f, 0xdd, 0x3d, 0x11, 0xea, 0xe3, 0xbc,
  0x3f, 0x25, 0x8b, 0x3e, 0x96, 0xb1, 0xc0, 0xbe, 0x74, 0xe5, 0x92, 0x3e,
  0x74, 0x5b, 0x92, 0xbe, 0x34, 0x71, 0x9c, 0x3e, 0x26, 0xce, 0x98, 0x3e,
  0x36, 0x7a, 0xa6, 0x3e, 0x32, 0x54, 0xff, 0x3d, 0x84, 0xcf, 0x05, 0x3e,
  0x39, 0xc6, 0x43, 0x3d, 0xac, 0xba, 0xb5, 0x3d, 0x52, 0xb6, 0x1c, 0xbd,
  0x90, 0x8c, 0x71, 0xbe, 0x90, 0xce, 0x95, 0xbe, 0x7a, 0x95, 0x8b, 0xbe,
  0xd8, 0xba, 0x3b, 0xbe, 0xff, 0x35, 0xa5, 0x3d, 0xba, 0xdf, 0xff, 0xff,
  0x10, 0x00, 0x00, 0x00, 0x09, 0x00, 0x00, 0x00, 0x1c, 0x00, 0x00, 0x00,
  0x38, 0x00, 0x00, 0x00, 0x04, 0x00, 0x00, 0x00, 0x08, 0x00, 0x00, 0x00,
  0x04, 0x00, 0x00, 0x00, 0x03, 0x00, 0x00, 0x00, 0x01, 0x00, 0x00, 0x00,
  0x18, 0x00, 0x00, 0x00, 0x73, 0x65, 0x71, 0x75, 0x65, 0x6e, 0x74, 0x69,
  0x61, 0x6c, 0x2f, 0x63, 0x6f, 0x6e, 0x76, 0x32, 0x64, 0x2f, 0x43, 0x6f,
  0x6e, 0x76, 0x32, 0x44, 0x00, 0x00, 0x00, 0x00, 0x30, 0xdf, 0xff, 0xff,
  0x3a, 0xe0, 0xff, 0xff, 0x04, 0x00, 0x00, 0x00, 0x00, 0x01, 0x00, 0x00,
  0xdb, 0xd4, 0xe9, 0x3d, 0x17, 0x80, 0xf0, 0x3c, 0x70, 0x74, 0x0a, 0xbe,
  0xb0, 0x9d, 0x00, 0x3e, 0x62, 0xb9, 0x40, 0x3e, 0x4b, 0x15, 0xc0, 0x3d,
  0x17, 0x14, 0x21, 0xbd, 0x5f, 0x6b, 0xb3, 0x3c, 0x35, 0x57, 0x46, 0x3b,
  0x81, 0x43, 0xc6, 0x3e, 0xef, 0x99, 0x94, 0xbd, 0xff, 0x2f, 0x41, 0x3e,
  0x2b, 0xa8, 0x94, 0xbe, 0xe4, 0xc6, 0x17, 0x3e, 0x7a, 0x67, 0x29, 0xbe,
  0x1f, 0x9b, 0xda, 0xbb, 0x25, 0xc0, 0x0f, 0x3e, 0xfd, 0xb5, 0xdf, 0x3c,
  0xcf, 0x18, 0x73, 0xbe, 0x90, 0xa0, 0x91, 0x3d, 0xe7, 0x86, 0x54, 0x3e,
  0x79, 0xa0, 0x4b, 0x3d, 0xf4, 0x40, 0xd0, 0xbd, 0x0a, 0x2e, 0x12, 0x3d,
  0xc7, 0x86, 0x62, 0x3c, 0x62, 0x5b, 0xd0, 0x3e, 0xa0, 0xa2, 0x37, 0xbf,
  0xf0, 0xbe, 0x04, 0x3e, 0x8c, 0xa6, 0x23, 0xbe, 0x14, 0x0c, 0x48, 0x3e,
  0xc7, 0x9f, 0x94, 0xbd, 0x2f, 0x6b, 0x30, 0xbd, 0xff, 0x64, 0x11, 0x3d,
  0x0a, 0xbe, 0xb5, 0x3d, 0xd9, 0x83, 0x26, 0xbf, 0x24, 0xa6, 0x35, 0x3d,
  0xa5, 0x51, 0x1e, 0x3e, 0x90, 0x1e, 0xcd, 0x3d, 0x54, 0x67, 0x70, 0xbe,
  0x62, 0x0e, 0x37, 0xbd, 0x0d, 0x8d, 0x9e, 0x3d, 0xa1, 0x10, 0x12, 0x3e,
  0x80, 0x10, 0x05, 0xbf, 0xb8, 0x96, 0x15, 0xbd, 0xa5, 0xb8, 0x83, 0xbd,
  0x4b, 0x35, 0x2f, 0x3e, 0x08, 0x0a, 0x62, 0xbe, 0x57, 0x9f, 0x53, 0xbc,
  0x09, 0xd0, 0xa6, 0x3d, 0xb0, 0x8f, 0x33, 0x3c, 0xd9, 0x6c, 0x67, 0x3d,
  0x4b, 0xe5, 0x6d, 0x3d, 0x31, 0x4e, 0x17, 0x3e, 0x62, 0x69, 0x96, 0x3c,
  0x9d, 0x07, 0xf6, 0xbd, 0x09, 0x06, 0xe4, 0xbd, 0xbc, 0x0d, 0x21, 0x3c,
  0x0f, 0xfa, 0x60, 0x3e, 0x00, 0x79, 0x0b, 0x3d, 0x2b, 0x50, 0x25, 0x3e,
  0x00, 0x81, 0xd5, 0x3c, 0xe8, 0xd8, 0x69, 0x3e, 0xcf, 0x93, 0x85, 0xbd,
  0xd4, 0x1b, 0x4b, 0x3d, 0x12, 0xe1, 0xff, 0xff, 0x10, 0x00, 0x00, 0x00,
  0x08, 0x00, 0x00, 0x00, 0x14, 0x00, 0x00, 0x00, 0x30, 0x00, 0x00, 0x00,
  0x02, 0x00, 0x00, 0x00, 0x04, 0x00, 0x00, 0x00, 0x10, 0x00, 0x00, 0x00,
  0x19, 0x00, 0x00, 0x00, 0x73, 0x65, 0x71, 0x75, 0x65, 0x6e, 0x74, 0x69,
  0x61, 0x6c, 0x2f, 0x64, 0x65, 0x6e, 0x73, 0x65, 0x5f, 0x31, 0x2f, 0x4d,
  0x61, 0x74, 0x4d, 0x75, 0x6c, 0x00, 0x00, 0x00, 0x80, 0xe0, 0xff, 0xff,
  0x8a, 0xe1, 0xff, 0xff, 0x04, 0x00, 0x00, 0x00, 0x00, 0x1c, 0x00, 0x00,
  0xda, 0x14, 0x06, 0x3d, 0x96, 0x45, 0xf9, 0xbe, 0xc5, 0xac, 0xbc, 0xbd,
  0xb4, 0x01, 0xe4, 0x3e, 0xef, 0x60, 0xb1, 0x3e, 0xe2, 0xcb, 0xf6, 0xbd,
  0x35, 0x72, 0xc3, 0x3e, 0x82, 0x9a, 0xb9, 0xbe, 0x78, 0x89, 0x8b, 0x3d,
  0x96, 0x37, 0xc4, 0x3d, 0x1f, 0xc9, 0x1b, 0xbe, 0x32, 0xdc, 0x98, 0xbe,
  0x09, 0x36, 0x77, 0x3e, 0x22, 0xac, 0xe0, 0xbd, 0x06, 0x30, 0xcc, 0x3e,
  0x53, 0x63, 0x19, 0xbd, 0x4b, 0xac, 0xd3, 0xbe, 0xe1, 0x17, 0xa3, 0x3d,
  0x21, 0x1f, 0x04, 0xbf, 0xeb, 0x51, 0x8c, 0xbe, 0x23, 0x0d, 0xbc, 0xbd,
  0x05, 0x8d, 0x18, 0xbf, 0xa6, 0x70, 0x97, 0xbe, 0xcb, 0x30, 0xea, 0x3b,
  0x53, 0xab, 0x54, 0xbc, 0x10, 0x7a, 0x64, 0xbc, 0xf9, 0x9b, 0x24, 0xbe,
  0xf4, 0x07, 0xb0, 0xbe, 0x25, 0x28, 0xdf, 0xbd, 0x16, 0xc3, 0xf5, 0xbc,
  0x90, 0xc6, 0xdf, 0xbe, 0x85, 0xa2, 0x60, 0xbe, 0x78, 0x40, 0x27, 0xbe,
  0x4b, 0xbf, 0xe9, 0x3d, 0xe6, 0x2e, 0x3d, 0xbf, 0xc3, 0x4f, 0xb5, 0x3d,
  0x30, 0xf6, 0x69, 0xbd, 0x81, 0xac, 0x4d, 0xbe, 0xfc, 0xaf, 0xbe, 0xbc,
  0xe4, 0xa2, 0x37, 0xbe, 0xf0, 0xa9, 0x04, 0xbd, 0x0a, 0xf7, 0x9d, 0xbc,
  0x18, 0x8e, 0x8e, 0xbd, 0x1a, 0xc9, 0x1f, 0xbf, 0x6e, 0x67, 0xac, 0xbd,
  0xe2, 0xfe, 0x88, 0xb8, 0x20, 0xcd, 0x1e, 0xbf, 0xe3, 0x3e, 0x1d, 0xbd,
  0xfc, 0x4c, 0xd8, 0x3d, 0x1c, 0x9d, 0x67, 0x3c, 0x1a, 0xf3, 0xf8, 0xbe,
  0x65, 0xfe, 0x9f, 0xbe, 0x79, 0xd2, 0x60, 0xbd, 0x36, 0x6a, 0x6c, 0xbb,
  0x00, 0xd1, 0x4e, 0xbc, 0x23, 0x1a, 0xd4, 0x3d, 0x58, 0x78, 0x94, 0xbc,
  0x53, 0x1f, 0x1b, 0xbd, 0x25, 0x09, 0xe9, 0xbe, 0x3d, 0x75, 0x3c, 0xbf,
  0x90, 0x98, 0xa8, 0xbc, 0xc6, 0xea, 0x54, 0x3d, 0x5a, 0x91, 0xb6, 0xbe,
  0x27, 0xa7, 0x90, 0x3b, 0x8c, 0x3c, 0xdd, 0xbd, 0xc1, 0x0a, 0xa6, 0xbe,
  0xe8, 0x37, 0x14, 0xbf, 0x54, 0x25, 0x93, 0xbe, 0xe5, 0x4f, 0x4c, 0x3e,
  0x6e, 0x53, 0x05, 0xbe, 0xe5, 0xef, 0x36, 0xbe, 0x24, 0x57, 0x04, 0xbe,
  0x79, 0xb2, 0x01, 0x3d, 0x9d, 0x47, 0x86, 0xbb, 0x55, 0xe3, 0xc7, 0xbe,
  0x5f, 0x57, 0x01, 0xbf, 0x0c, 0x96, 0x2e, 0xbe, 0x9f, 0x19, 0x80, 0x3b,
  0xf4, 0xbb, 0x03, 0xbf, 0xfd, 0x37, 0xb3, 0xbd, 0x6e, 0xe9, 0x8f, 0x3b,
  0x9a, 0xa0, 0x95, 0xbe, 0x07, 0xe0, 0xaa, 0xbe, 0x2c, 0x9d, 0xd7, 0xbe,
  0x2b, 0xf1, 0x0a, 0xbe, 0x73, 0x6b, 0xbd, 0xbd, 0x6f, 0x6b, 0x7c, 0xbe,
  0x69, 0xe7, 0x74, 0xbe, 0xb1, 0xf2, 0x2b, 0x3d, 0x4f, 0xb2, 0x22, 0xbc,
  0x4e, 0xfc, 0x82, 0xbe, 0x1b, 0xe0, 0x0e, 0xbf, 0x8c, 0x96, 0x2f, 0x3e,
  0xea, 0xfb, 0x53, 0xbd, 0xfb, 0x1d, 0x54, 0xbe, 0xf4, 0x94, 0x29, 0x3d,
  0x70, 0x74, 0xac, 0xbc, 0x3a, 0x24, 0x62, 0xbe, 0x6c, 0xdb, 0x21, 0x3d,
  0x59, 0x8c, 0x5e, 0x3e, 0x52, 0x55, 0xef, 0xbc, 0x94, 0x6a, 0x01, 0xbe,
  0x66, 0xd9, 0xf8, 0xbd, 0x00, 0xc4, 0x81, 0x3e, 0xb8, 0x74, 0xf4, 0x3c,
  0xfb, 0x2c, 0x9e, 0xbd, 0x7a, 0xae, 0x03, 0xbe, 0x59, 0x04, 0xa8, 0x3d,
  0xdc, 0xeb, 0x03, 0xbe, 0xce, 0x41, 0xde, 0xb8, 0xfe, 0x18, 0x2d, 0x3e,
  0x9a, 0x5d, 0x35, 0x3e, 0x69, 0x19, 0xd9, 0xbe, 0x70, 0x96, 0x0b, 0x3e,
  0x69, 0x1a, 0x30, 0x3e, 0xfd, 0x8c, 0xa0, 0xbb, 0x9b, 0x72, 0xf9, 0x3d,
  0xea, 0xa7, 0x8c, 0xbd, 0x49, 0xb7, 0x00, 0x3e, 0x41, 0xa0, 0xb0, 0xbe,
  0x56, 0xa2, 0xd2, 0xbe, 0xf9, 0x8e, 0x22, 0xbf, 0x66, 0xd4, 0x81, 0xbe,
  0xa8, 0x2b, 0xaf, 0x3c, 0x15, 0x86, 0x60, 0xbe, 0x11, 0x5f, 0x68, 0xbe,
  0x71, 0xc8, 0x55, 0xbe, 0x40, 0x63, 0xa0, 0xbe, 0xdf, 0xa8, 0xc0, 0x3d,
  0x6f, 0x26, 0x8c, 0x3d, 0x8a, 0x59, 0xeb, 0xbc, 0x79, 0xcf, 0xb2, 0xbb,
  0xb1, 0x09, 0x71, 0xbe, 0xb7, 0xe1, 0x88, 0xbd, 0xee, 0xe6, 0x4e, 0x3e,
  0x6f, 0x4e, 0x30, 0xbd, 0x12, 0x8c, 0x07, 0xbf, 0x7b, 0x7e, 0x32, 0xbf,
  0x12, 0x0f, 0xd2, 0xbe, 0x5a, 0x9c, 0x99, 0x3e, 0xa3, 0xc3, 0x49, 0xbe,
  0x78, 0xd4, 0xa2, 0xbe, 0xb6, 0x8e, 0x69, 0x3e, 0xef, 0x49, 0xb4, 0x3e,
  0xd6, 0x3a, 0xb6, 0x3e, 0xb9, 0x33, 0x25, 0x3d, 0xda, 0x6a, 0x00, 0x3d,
  0x6b, 0xf7, 0x31, 0xbe, 0x93, 0xba, 0xad, 0x3e, 0xd4, 0xbc, 0xe1, 0xbd,
  0x09, 0xd7, 0x13, 0x3e, 0x9f, 0xec, 0xce, 0x3c, 0x41, 0x80, 0xdd, 0xbd,
  0xea, 0x3d, 0x63, 0xbe, 0x14, 0xfe, 0xce, 0xbe, 0x54, 0x13, 0xcb, 0xbd,
  0x41, 0x57, 0x31, 0x3e, 0x3f, 0x0f, 0x74, 0xbd, 0xdc, 0x6c, 0xee, 0x3c,
  0x3b, 0xe6, 0x74, 0x3e, 0xd2, 0xae, 0x3e, 0x3e, 0xb2, 0x5e, 0x3f, 0xbe,
  0x8b, 0x8a, 0xb7, 0x3d, 0x50, 0x3a, 0x60, 0xbe, 0x74, 0x7f, 0x64, 0x3e,
  0x99, 0xd9, 0xef, 0xbd, 0x5d, 0xa3, 0x2e, 0x3e, 0x40, 0xbb, 0xa9, 0x3d,
  0x33, 0x25, 0x28, 0x3e, 0x8c, 0x26, 0xc4, 0xbd, 0x24, 0x6b, 0xa7, 0xbe,
  0x89, 0x6b, 0xf8, 0x3d, 0x98, 0x5e, 0x9b, 0x3e, 0x47, 0xc1, 0x7b, 0x3d,
  0x39, 0x56, 0x95, 0x3c, 0x74, 0x8f, 0x74, 0x3e, 0x64, 0x86, 0x42, 0x3e,
  0x1c, 0x22, 0x75, 0xbe, 0x99, 0x0e, 0x53, 0xbd, 0xeb, 0xc2, 0x88, 0xbe,
  0x27, 0x40, 0x5a, 0x3e, 0x67, 0x21, 0x0b, 0xbd, 0xab, 0x16, 0x9e, 0x3e,
  0xe4, 0x94, 0x27, 0xbd, 0x9a, 0xd6, 0x40, 0x3e, 0xd4, 0xb6, 0x14, 0xbd,
  0x6f, 0x64, 0x7d, 0xbe, 0xaa, 0x85, 0x22, 0x3e, 0xc1, 0x3b, 0x27, 0xbc,
  0xc4, 0x01, 0xad, 0x3d, 0x20, 0xda, 0x8e, 0xbd, 0x08, 0x7d, 0x4a, 0x3e,
  0x0e, 0x8e, 0x36, 0x3e, 0xd3, 0x1c, 0xbd, 0xbd, 0x5c, 0x7e, 0x85, 0xbd,
  0x86, 0x80, 0x85, 0xbd, 0xa2, 0x2d, 0xdf, 0x3c, 0xe8, 0x39, 0x89, 0xbd,
  0xba, 0xd3, 0x7b, 0x3e, 0xa3, 0x62, 0xd5, 0xbc, 0x19, 0x1b, 0xfd, 0x3d,
  0x51, 0xbc, 0x54, 0x3d, 0xe5, 0x57, 0x91, 0xbe, 0x62, 0x1a, 0xc8, 0x3d,
  0xba, 0x28, 0xf1, 0x3d, 0x5a, 0x70, 0x4e, 0x3d, 0xdf, 0xee, 0x7f, 0xbb,
  0xf7, 0x8f, 0x0b, 0x3e, 0x4e, 0x12, 0x8a, 0x3e, 0xec, 0x2d, 0x79, 0x3b,
  0xd7, 0xb0, 0x21, 0xbe, 0x6a, 0x8c, 0x1f, 0x3d, 0x9b, 0x97, 0xf6, 0x3c,
  0x6e, 0x44, 0xdc, 0xbc, 0xb2, 0xef, 0x0a, 0x3d, 0x10, 0xb2, 0x9a, 0xbd,
  0x3a, 0x9f, 0x64, 0x3e, 0xd3, 0x1c, 0xad, 0x3d, 0xdd, 0xca, 0x31, 0xbe,
  0xa4, 0xaa, 0x5c, 0xbd, 0x59, 0xcf, 0xa0, 0xbd, 0x58, 0x06, 0x03, 0x3e,
  0xc8, 0xca, 0x68, 0x3d, 0xaa, 0xbe, 0x1f, 0x3e, 0x7a, 0xd0, 0x8d, 0xbe,
  0xfc, 0xc3, 0x54, 0x3e, 0xbc, 0x28, 0x74, 0xbe, 0xa6, 0x84, 0x2c, 0xbe,
  0x04, 0x50, 0x25, 0xbe, 0x47, 0x72, 0xaf, 0xbc, 0x5e, 0xb7, 0x7f, 0xbd,
  0x35, 0x9b, 0x25, 0x3e, 0xa1, 0xa9, 0x10, 0x3e, 0xf6, 0xca, 0x67, 0xbe,
  0x7c, 0x98, 0x3a, 0xbe, 0x09, 0xcd, 0x04, 0x3e, 0x82, 0xa8, 0x2d, 0xbe,
  0xc6, 0xec, 0x49, 0x3e, 0x71, 0xb3, 0x58, 0xbd, 0x6a, 0xa4, 0xa2, 0x3d,
  0xa0, 0x5f, 0x6e, 0xbc, 0x88, 0xa3, 0x02, 0x3d, 0x67, 0x44, 0xb0, 0x3c,
  0x84, 0xaa, 0x6c, 0xbe, 0x8e, 0xc4, 0xac, 0xbd, 0x6f, 0x9e, 0x44, 0xbd,
  0x7c, 0x29, 0x53, 0xbd, 0xa9, 0x6b, 0x96, 0xbd, 0xb1, 0x4a, 0x00, 0xbe,
  0xc4, 0xa8, 0xe6, 0xbd, 0x12, 0x04, 0x54, 0xbe, 0x60, 0xa1, 0x3f, 0xbe,
  0x48, 0x15, 0x22, 0x3e, 0x28, 0xce, 0x86, 0x3d, 0xe6, 0x94, 0x54, 0xbe,
  0x9d, 0xc8, 0x59, 0x3d, 0xb7, 0x34, 0x24, 0x3e, 0x1c, 0x4e, 0x5c, 0xbd,
  0x5a, 0xb3, 0x7b, 0xbd, 0x8d, 0x8a, 0xf2, 0xbd, 0x9f, 0x43, 0x97, 0xbd,
  0xed, 0xe3, 0x29, 0x3e, 0xe1, 0xa6, 0x38, 0xbd, 0xa4, 0x36, 0x63, 0x3d,
  0x3b, 0xd1, 0xa4, 0xbd, 0xb8, 0x1d, 0x22, 0xbe, 0x13, 0xa8, 0x15, 0xbd,
  0x37, 0xbc, 0x51, 0x3c, 0xcb, 0x38, 0x01, 0xbd, 0x59, 0x76, 0xf6, 0x3d,
  0xef, 0xcb, 0x21, 0x3e, 0x22, 0x28, 0x21, 0xbe, 0x01, 0x83, 0x17, 0x3e,
  0xce, 0x97, 0xc0, 0xbd, 0xdf, 0xf2, 0x8a, 0xbe, 0xee, 0xa5, 0x2f, 0xbd,
  0x0b, 0x95, 0x05, 0xbe, 0x85, 0x56, 0x40, 0xbc, 0x9a, 0xf6, 0xbd, 0x3d,
  0x62, 0x68, 0x0e, 0xbe, 0x75, 0xbb, 0xfe, 0xbd, 0x92, 0xb0, 0x9e, 0xbe,
  0x7a, 0xf1, 0x16, 0xbe, 0x6e, 0x17, 0xba, 0x3d, 0x7e, 0x50, 0x33, 0x3d,
  0x06, 0xc9, 0x99, 0x3a, 0xf0, 0xf8, 0x40, 0xbe, 0x85, 0x28, 0xf5, 0x3b,
  0x9b, 0xfa, 0x46, 0xbe, 0x02, 0x54, 0x8f, 0xbd, 0x4c, 0xdb, 0x03, 0xbe,
  0x66, 0xee, 0xdf, 0xbd, 0xe8, 0x03, 0xcc, 0x3d, 0xc9, 0xbe, 0x23, 0xbe,
  0xe1, 0x96, 0x89, 0xbd, 0xaa, 0x3d, 0x7b, 0x3c, 0xd4, 0xad, 0x8f, 0x3c,
  0x25, 0xe5, 0x4b, 0xbe, 0xd7, 0x37, 0x6e, 0xbb, 0xf4, 0x22, 0x80, 0x3e,
  0x05, 0x29, 0x00, 0xbe, 0x70, 0x64, 0x80, 0xbd, 0x0c, 0x10, 0x92, 0x3d,
  0x76, 0xe5, 0xc2, 0x3d, 0xdf, 0x14, 0x74, 0xbc, 0x04, 0x6b, 0x38, 0x3d,
  0x41, 0x2d, 0x8d, 0xbe, 0xd6, 0x15, 0xc7, 0x3d, 0xca, 0xfe, 0x7f, 0xbd,
  0x67, 0x30, 0x2f, 0xbe, 0x71, 0x00, 0x78, 0x3d, 0xdd, 0x37, 0xb7, 0x3b,
  0x35, 0xe6, 0x4d, 0xbd, 0x0a, 0x05, 0x0a, 0xbe, 0x32, 0x3c, 0x2e, 0xbe,
  0x6c, 0x28, 0x1f, 0xbd, 0xf6, 0x8c, 0x09, 0xbe, 0x4d, 0xc5, 0x6f, 0xbe,
  0x6a, 0xa7, 0x41, 0xbe, 0x32, 0xc8, 0x50, 0x3c, 0xe3, 0x5e, 0x58, 0x3e,
  0x5c, 0xb1, 0x07, 0x3d, 0xee, 0x7d, 0x09, 0xbe, 0x92, 0x9e, 0x54, 0xbb,
  0xef, 0x49, 0x2d, 0xbd, 0x1f, 0xd0, 0xa7, 0xbd, 0x3c, 0x95, 0x01, 0x3d,
  0xe8, 0xbe, 0x5f, 0x3d, 0x19, 0x46, 0xd6, 0xbd, 0x78, 0x91, 0x1c, 0xbe,
  0xb6, 0x4c, 0x9f, 0xbd, 0xce, 0xab, 0x03, 0x3e, 0x71, 0x79, 0xc5, 0xbd,
  0x44, 0x6c, 0x59, 0xbe, 0x30, 0xd1, 0x91, 0x3d, 0xa2, 0x9c, 0x1e, 0xbe,
  0xd0, 0x91, 0xb2, 0x3c, 0x5d, 0x01, 0x03, 0xbe, 0x4e, 0x1f, 0xbf, 0x3d,
  0xff, 0x42, 0x3f, 0xba, 0xf9, 0xa2, 0x18, 0xbe, 0x9b, 0x0c, 0x43, 0xbe,
  0x27, 0xac, 0x86, 0xbc, 0xc5, 0x87, 0x11, 0x3d, 0x4a, 0x34, 0x90, 0xbd,
  0xa9, 0xf7, 0xf3, 0xbd, 0x00, 0x98, 0xb8, 0xbd, 0x03, 0xc3, 0x4d, 0x3d,
  0xb8, 0x37, 0xe9, 0x3e, 0xb9, 0xf6, 0xe6, 0xbd, 0x3d, 0xa7, 0xb6, 0xbd,
  0xf6, 0xa6, 0xa9, 0xbe, 0x44, 0xde, 0x04, 0x3e, 0x68, 0x8e, 0xc6, 0xbe,
  0x20, 0x8d, 0x9f, 0x3e, 0x6b, 0xa8, 0x97, 0xbd, 0x69, 0x7e, 0x39, 0xbe,
  0xd0, 0x1c, 0x5c, 0xbe, 0xb9, 0x30, 0xd4, 0xbd, 0x55, 0x91, 0xeb, 0x3f,
  0xbc, 0xa5, 0x43, 0xbe, 0x30, 0xff, 0x05, 0xbe, 0xc8, 0x7d, 0x26, 0x3d,
  0x9e, 0xd7, 0xe0, 0xbd, 0xf6, 0x27, 0x7d, 0x3e, 0xc0, 0xd1, 0x43, 0xbe,
  0x7e, 0xf5, 0x25, 0x3e, 0x3c, 0x09, 0xe1, 0xbd, 0x8c, 0x3e, 0x7c, 0xbd,
  0xdb, 0x99, 0xc0, 0xbe, 0xe9, 0xfa, 0x7e, 0x3e, 0x6c, 0xbe, 0x93, 0xbd,
  0x11, 0xee, 0xdf, 0xbd, 0xcc, 0x8f, 0x7a, 0xbe, 0x9a, 0xb7, 0x65, 0xbc,
  0xb9, 0xa3, 0xdb, 0x3f, 0xe2, 0xff, 0xaf, 0xbe, 0x84, 0xb6, 0x90, 0xbd,
  0xf7, 0xa3, 0x64, 0x3c, 0x8d, 0x73, 0x83, 0xbd, 0x02, 0x39, 0x58, 0x3e,
  0xf4, 0xc3, 0xa9, 0xbe, 0x2d, 0xca, 0x34, 0x3e, 0xf7, 0xfc, 0x8b, 0x3d,
  0xed, 0xfa, 0xdc, 0xbd, 0x6a, 0x73, 0x52, 0xbe, 0x4a, 0xb7, 0x11, 0x3e,
  0x86, 0xfc, 0x2e, 0x3e, 0x35, 0x50, 0xd4, 0x3c, 0x96, 0xf3, 0x94, 0xbe,
  0xba, 0x75, 0xf9, 0x3d, 0x36, 0xaa, 0xe6, 0x3f, 0xc5, 0x89, 0x2a, 0xbe,
  0x93, 0xb7, 0x94, 0x3d, 0x62, 0x77, 0x0f, 0x3e, 0xc0, 0x93, 0x58, 0x3e,
  0x84, 0x1f, 0x1a, 0x3e, 0x13, 0x92, 0x3a, 0xbe, 0x5c, 0x1d, 0x6a, 0x3e,
  0xbe, 0x8c, 0x8e, 0xbe, 0xf0, 0x49, 0x7f, 0xbe, 0xa9, 0x15, 0xd0, 0xbd,
  0xe7, 0xac, 0xef, 0x3d, 0xff, 0xb1, 0x0d, 0xbe, 0xe3, 0xe9, 0x49, 0xbd,
  0x43, 0x53, 0x83, 0xbe, 0xb3, 0xb9, 0xb8, 0x3d, 0x80, 0x26, 0xe0, 0x3f,
  0xeb, 0xee, 0x15, 0xbe, 0x90, 0xb3, 0xa2, 0x3d, 0xa8, 0x38, 0xa2, 0x3e,
  0x25, 0x0a, 0xff, 0x3d, 0xb4, 0x99, 0x89, 0x3e, 0x18, 0x37, 0xa0, 0xbe,
  0xb5, 0x6e, 0x27, 0x3e, 0xc9, 0xba, 0x49, 0xbe, 0xa4, 0xe7, 0x5b, 0x3c,
  0x76, 0xc7, 0xdc, 0x3d, 0xfc, 0x3d, 0xfb, 0x3c, 0x45, 0xe8, 0x10, 0xbd,
  0x79, 0x33, 0xa3, 0xbe, 0xf8, 0x7e, 0xca, 0xbe, 0x7f, 0x9f, 0x10, 0xbe,
  0x08, 0x7d, 0xa7, 0x3f, 0xf3, 0x0c, 0x98, 0xbe, 0x35, 0xb0, 0x82, 0xbd,
  0x33, 0x87, 0x40, 0x3c, 0x25, 0xa6, 0xa5, 0xbe, 0xd9, 0x0a, 0x12, 0x3f,
  0x9d, 0x9a, 0x51, 0xbe, 0x67, 0x07, 0x85, 0x3d, 0xc3, 0x13, 0xf0, 0x3c,
  0xdf, 0x8c, 0xaf, 0xbe, 0x24, 0xd2, 0x0b, 0x3c, 0x83, 0xc8, 0xc1, 0x3d,
  0x1a, 0x9c, 0x9c, 0xbe, 0x00, 0x1c, 0x86, 0xbe, 0x33, 0xeb, 0x43, 0xbe,
  0xd4, 0xc9, 0xea, 0xbd, 0xf8, 0x59, 0x43, 0x3f, 0x4a, 0x02, 0xa3, 0xbd,
  0x99, 0x64, 0x18, 0xbd, 0xe9, 0x3a, 0xb5, 0xbd, 0x56, 0xe1, 0x95, 0x3d,
  0xea, 0x96, 0x9e, 0xbe, 0xee, 0x76, 0x55, 0xbe, 0x4d, 0x57, 0x35, 0x3d,
  0xbf, 0x35, 0xa1, 0xbe, 0x46, 0x78, 0x9d, 0x3c, 0x6a, 0xd7, 0xb0, 0xbf,
  0x6a, 0xa9, 0x31, 0x3c, 0xcc, 0xc7, 0xa2, 0x3e, 0x58, 0x17, 0x60, 0x3e,
  0x07, 0x31, 0x4c, 0xbe, 0x6e, 0x8f, 0x87, 0x3e, 0x9d, 0x65, 0x80, 0xbf,
  0x4c, 0x77, 0xf8, 0x3d, 0xf7, 0x5e, 0x6d, 0x3d, 0xff, 0x83, 0x2c, 0xbe,
  0x0c, 0x01, 0x10, 0xbe, 0x76, 0x52, 0x2e, 0xbd, 0x67, 0x0d, 0x06, 0x3e,
  0xf7, 0x8b, 0x8e, 0x3d, 0x82, 0x0b, 0x30, 0xbd, 0x89, 0x53, 0xe4, 0xbe,
  0xc3, 0xb0, 0xd2, 0xbd, 0x3d, 0x4d, 0x00, 0xbf, 0x27, 0xf7, 0x87, 0x3e,
  0x61, 0x69, 0xc7, 0x3c, 0x8c, 0xf7, 0x43, 0xbe, 0xde, 0xca, 0x8a, 0x3e,
  0x09, 0x2e, 0xa3, 0x3d, 0xf1, 0xfb, 0x1e, 0xbe, 0xd2, 0x2c, 0x0a, 0x3c,
  0x18, 0x78, 0x77, 0xbc, 0x04, 0x28, 0xd2, 0xbd, 0xbd, 0x1f, 0xb2, 0xbd,
  0x1e, 0xfb, 0x15, 0xbe, 0x8b, 0x82, 0x86, 0x3d, 0x38, 0xd6, 0xf8, 0xbd,
  0xc2, 0x6d, 0xe3, 0xbd, 0xc3, 0xe6, 0x5f, 0x3d, 0x4e, 0x75, 0x46, 0xbf,
  0xfb, 0x8e, 0x90, 0x3e, 0xc2, 0x96, 0xb0, 0xbe, 0x90, 0x95, 0x91, 0xbe,
  0x3a, 0x7b, 0xb2, 0xbd, 0xd1, 0x3b, 0x6e, 0xbd, 0x20, 0x3e, 0x94, 0x3b,
  0xcc, 0x98, 0x76, 0x39, 0x1f, 0xf9, 0xd8, 0x3c, 0xa8, 0xa9, 0x59, 0xbf,
  0x0b, 0xa0, 0xd0, 0xbd, 0x0f, 0xbe, 0x0c, 0xbe, 0xfa, 0xf5, 0x82, 0xbe,
  0x81, 0x7b, 0x24, 0x3e, 0x88, 0x79, 0xaf, 0xbd, 0x59, 0x51, 0x62, 0xbd,
  0x8f, 0x41, 0x52, 0xbf, 0xe1, 0xe2, 0x17, 0xbe, 0x00, 0xeb, 0x4d, 0xbe,
  0x5b, 0x2d, 0x10, 0xbf, 0x12, 0x9b, 0xb9, 0xbe, 0x3f, 0x42, 0xc7, 0x3d,
  0xe1, 0x6d, 0x99, 0xbc, 0x19, 0x87, 0xc3, 0xbd, 0xa3, 0x2a, 0xd9, 0xbe,
  0x54, 0x0f, 0x5c, 0xbf, 0xe8, 0x39, 0x64, 0xbd, 0x41, 0x3c, 0xd4, 0xbd,
  0x48, 0x04, 0xd3, 0xbe, 0xe2, 0x88, 0xcd, 0xbc, 0xee, 0x9e, 0x40, 0x3e,
  0x78, 0x51, 0x98, 0xbe, 0xf5, 0xda, 0xec, 0x3c, 0xcb, 0x61, 0x83, 0x3e,
  0x5c, 0xa3, 0x3b, 0xbe, 0xe8, 0xea, 0x20, 0xbd, 0x49, 0xe5, 0xad, 0xbd,
  0x9f, 0x05, 0x45, 0x3e, 0x74, 0xb9, 0xf8, 0x3c, 0xcb, 0xb5, 0x83, 0xbd,
  0x45, 0x8e, 0xe6, 0xbe, 0xc1, 0xac, 0xbb, 0xbe, 0x6c, 0x01, 0xa5, 0x3d,
  0x7a, 0x20, 0x88, 0x3b, 0x9c, 0xb2, 0x06, 0x3e, 0x88, 0x17, 0x06, 0x3e,
  0x58, 0xc5, 0x70, 0x3e, 0x51, 0x62, 0xbc, 0xbd, 0xb9, 0xa5, 0x71, 0x3c,
  0xf1, 0x4a, 0x2d, 0x3e, 0x28, 0x16, 0x2d, 0x3e, 0xd7, 0xb7, 0xaf, 0xbd,
  0x26, 0xcd, 0x00, 0x3e, 0xa1, 0x77, 0x9b, 0x3e, 0xb1, 0x3b, 0x24, 0xbe,
  0xb8, 0x17, 0x75, 0xbd, 0x88, 0x24, 0x10, 0xbe, 0xe9, 0x00, 0x8e, 0xbe,
  0x51, 0xf9, 0x96, 0xbd, 0x6d, 0xd7, 0x02, 0x3e, 0x1d, 0xc5, 0x08, 0x3e,
  0x18, 0xb3, 0x7f, 0x3e, 0xc5, 0xf9, 0xe5, 0x3d, 0xae, 0x29, 0x78, 0x3c,
  0x9c, 0x7a, 0x07, 0x3e, 0x81, 0x8d, 0x19, 0x3e, 0x8a, 0x6f, 0x4b, 0x3d,
  0x92, 0x62, 0x09, 0xbe, 0x29, 0xfd, 0x8f, 0x3d, 0x7e, 0xb6, 0x81, 0x3e,
  0x5d, 0xda, 0x2a, 0xbe, 0xdd, 0x31, 0x91, 0xbd, 0xf7, 0x18, 0xa9, 0xbd,
  0x75, 0xe3, 0x7d, 0x3d, 0x18, 0xe5, 0x19, 0xbd, 0xc7, 0x16, 0x94, 0x3d,
  0xc3, 0x3f, 0x6c, 0x3d, 0xca, 0x3d, 0x36, 0xbd, 0x59, 0x88, 0x83, 0xbe,
  0x43, 0x00, 0x3a, 0xbd, 0xae, 0x5d, 0x86, 0xbd, 0x70, 0xda, 0x3a, 0xbd,
  0xb5, 0xea, 0x57, 0xbe, 0x8b, 0x9d, 0x95, 0xbe, 0x5b, 0x7b, 0x83, 0xbe,
  0x48, 0x40, 0x07, 0xbe, 0xee, 0xf4, 0x16, 0xbf, 0x36, 0xff, 0x1f, 0xbe,
  0x31, 0xc8, 0x38, 0x3e, 0x73, 0x94, 0x81, 0x3e, 0x06, 0x0d, 0x62, 0x3e,
  0x15, 0xe0, 0xc8, 0xbe, 0x4f, 0x2b, 0x98, 0x3d, 0xd3, 0x62, 0x34, 0xbe,
  0x70, 0x30, 0x66, 0x3e, 0x30, 0x2c, 0x66, 0x3d, 0x3b, 0xa9, 0xfe, 0xbd,
  0x84, 0x91, 0xa8, 0x3d, 0xc8, 0x2b, 0xbf, 0x3d, 0x7f, 0xcb, 0x25, 0xbc,
  0xd1, 0x09, 0xec, 0xbc, 0x67, 0x72, 0x4f, 0xbd, 0xb3, 0x42, 0xd6, 0x3c,
  0x3b, 0x70, 0xb4, 0xbd, 0x77, 0x62, 0xef, 0xbd, 0x2a, 0x74, 0x1a, 0x3d,
  0x59, 0x39, 0x9c, 0x3c, 0x43, 0xb3, 0xb1, 0x3d, 0xef, 0xe4, 0x04, 0x3d,
  0x3b, 0x3d, 0x9e, 0x3e, 0x66, 0x54, 0x7a, 0x3e, 0x4e, 0x02, 0xaf, 0x3d,
  0xd1, 0x11, 0xf0, 0x3d, 0x35, 0x9b, 0xec, 0xbd, 0xaf, 0x2e, 0x19, 0x3e,
  0xe2, 0x99, 0x09, 0xbe, 0x5d, 0x27, 0xac, 0x3e, 0xc4, 0x2a, 0x67, 0x3e,
  0x2b, 0xd3, 0x53, 0x3d, 0x16, 0x66, 0x9e, 0xbd, 0x59, 0xb9, 0x49, 0xbe,
  0x74, 0xcc, 0x5c, 0x3d, 0x3a, 0xbf, 0xc9, 0x3d, 0xa8, 0xef, 0x95, 0x3d,
  0xda, 0xd6, 0xad, 0x3e, 0x6e, 0xa7, 0xca, 0x3e, 0x9c, 0x9f, 0x5b, 0x3e,
  0x26, 0xc8, 0xf8, 0xbd, 0xd4, 0xec, 0x3a, 0x3e, 0x00, 0x9d, 0x65, 0xbd,
  0xd4, 0x7b, 0xf1, 0x3d, 0x4b, 0xe1, 0x15, 0xbe, 0x70, 0x2c, 0x45, 0x3e,
  0xdc, 0xa1, 0x6f, 0xbe, 0x62, 0x0c, 0x63, 0x3d, 0x4a, 0x9f, 0x70, 0x3d,
  0xf4, 0x2c, 0x6c, 0xbe, 0x2d, 0x4c, 0x89, 0x3d, 0x45, 0x37, 0xae, 0x3d,
  0xdf, 0xfe, 0x1d, 0x3d, 0xed, 0x08, 0xb0, 0x3e, 0xe2, 0xb7, 0x4b, 0x3e,
  0x4b, 0xa7, 0x83, 0x3e, 0x35, 0x2e, 0x30, 0x3d, 0x6d, 0xd8, 0x28, 0xbe,
  0xa2, 0x40, 0x3e, 0xbe, 0x0a, 0x66, 0x64, 0x3e, 0xfd, 0x8f, 0xe0, 0xbd,
  0xfa, 0xd5, 0x50, 0x3e, 0xf6, 0xe0, 0x0d, 0xbe, 0xdb, 0x99, 0x98, 0x3d,
  0x2e, 0x98, 0x86, 0xbc, 0x05, 0x1d, 0x87, 0xbe, 0xa7, 0x60, 0x24, 0x3e,
  0xb9, 0x10, 0x2f, 0x3d, 0x0b, 0x48, 0x3d, 0x3d, 0x0e, 0x90, 0x88, 0x3b,
  0x02, 0xc1, 0xa0, 0x3e, 0x6c, 0x1b, 0x2c, 0xbd, 0x7b, 0xee, 0x78, 0x3d,
  0x2e, 0xb3, 0xbf, 0xbd, 0x38, 0xe4, 0x24, 0xbe, 0xb8, 0xfa, 0x48, 0x3e,
  0xcd, 0xa3, 0x5e, 0xbe, 0x47, 0x12, 0x4e, 0x3e, 0x01, 0x9a, 0x68, 0xbe,
  0x69, 0xc1, 0x9a, 0x3d, 0xd9, 0xab, 0x24, 0x3c, 0xfb, 0xdf, 0xdb, 0xbe,
  0x28, 0x22, 0x97, 0xbe, 0x77, 0xd2, 0x6d, 0x3e, 0xc7, 0x33, 0xaa, 0x3b,
  0xa5, 0x79, 0xbe, 0xbd, 0x0e, 0xef, 0x77, 0x3e, 0x92, 0xde, 0x91, 0xbd,
  0x2d, 0xf7, 0x99, 0x3d, 0xda, 0x6b, 0xd7, 0x3b, 0x09, 0xb4, 0x7f, 0xbe,
  0xef, 0xa5, 0xc7, 0xbc, 0xb3, 0x2f, 0xff, 0x3d, 0x65, 0x1b, 0x2d, 0x3e,
  0x02, 0x13, 0x47, 0xbd, 0xc7, 0xa5, 0x53, 0xbd, 0xe9, 0xa3, 0xef, 0xbc,
  0xcd, 0x4e, 0x96, 0xbe, 0xa1, 0x19, 0xbc, 0xbd, 0x42, 0xdd, 0xf2, 0xbe,
  0xca, 0x12, 0xdd, 0xbd, 0x35, 0x9f, 0x53, 0xbe, 0x54, 0xfa, 0xaa, 0xbe,
  0xd6, 0xe3, 0xc6, 0xbe, 0xd1, 0x05, 0x4c, 0xbe, 0x2a, 0x6a, 0x80, 0x3d,
  0xe0, 0x33, 0x58, 0xbe, 0x33, 0x2b, 0xcb, 0xbd, 0x47, 0x06, 0xce, 0x3d,
  0x0c, 0x70, 0xfa, 0xbd, 0xa1, 0x79, 0x35, 0xbd, 0x73, 0x08, 0x3c, 0xbe,
  0x7d, 0x93, 0xd7, 0xbc, 0xcc, 0x68, 0xf9, 0x3d, 0x24, 0xc7, 0x0a, 0x3e,
  0x3b, 0xb0, 0x6d, 0x3e, 0x23, 0x89, 0x22, 0xbe, 0x2e, 0xc9, 0xfb, 0x3d,
  0x19, 0x7e, 0x51, 0xbf, 0x01, 0x86, 0x0e, 0xbe, 0x4e, 0x5f, 0x6a, 0xbe,
  0xb0, 0xd9, 0x11, 0x3e, 0x26, 0x44, 0xbb, 0xbb, 0x00, 0x0b, 0xfc, 0xbc,
  0xa9, 0xf4, 0x92, 0xbe, 0x6d, 0x69, 0x38, 0xbe, 0x6d, 0x51, 0x31, 0x40,
  0x6f, 0xf8, 0x94, 0xbe, 0xc8, 0xf1, 0xf9, 0xbd, 0xe5, 0x1c, 0x9d, 0xbd,
  0xd8, 0x66, 0x95, 0xbe, 0xae, 0xbc, 0xee, 0x3d, 0x08, 0xb8, 0x90, 0xbd,
  0xe3, 0xda, 0xcc, 0x3d, 0x42, 0x59, 0x7f, 0xbc, 0x94, 0xc5, 0x0c, 0xbe,
  0xee, 0x5b, 0x88, 0xbe, 0x47, 0x7d, 0x8d, 0x3e, 0x8c, 0x83, 0x12, 0x3d,
  0xb8, 0xac, 0x08, 0xbd, 0x6f, 0x9b, 0xc7, 0xbe, 0xa8, 0x64, 0x49, 0x3d,
  0x06, 0x9a, 0x33, 0x40, 0x62, 0x9d, 0xe6, 0xbe, 0x84, 0x26, 0x77, 0x3b,
  0x00, 0x29, 0xda, 0xbd, 0x94, 0x87, 0x6c, 0x3d, 0xc9, 0x3c, 0x86, 0x3c,
  0x9b, 0xb4, 0x9c, 0xbe, 0x11, 0x08, 0xaf, 0x3e, 0xa2, 0xc9, 0x1a, 0x3c,
  0xb2, 0xcb, 0x9f, 0xbd, 0xb2, 0x53, 0x13, 0xbe, 0x3d, 0x8a, 0x98, 0x3e,
  0xcd, 0x79, 0x14, 0xbe, 0x1d, 0x00, 0x84, 0xbc, 0x85, 0xd9, 0x93, 0xbe,
  0xc4, 0xae, 0xae, 0xbd, 0xbe, 0xee, 0x44, 0x40, 0xfd, 0xc2, 0x7a, 0xbe,
  0xe8, 0xf9, 0x02, 0x3d, 0x4c, 0xcd, 0xc3, 0xbd, 0x94, 0x67, 0x92, 0xbd,
  0x64, 0x9e, 0xd2, 0xbc, 0x4c, 0x45, 0x92, 0xbe, 0xee, 0x90, 0x68, 0x3e,
  0x69, 0x06, 0x2c, 0xbe, 0xb5, 0x6a, 0xda, 0xbe, 0x0c, 0x55, 0xb4, 0xbd,
  0x78, 0xb8, 0xcc, 0x3d, 0x95, 0xf7, 0x9a, 0x3c, 0xdb, 0xf0, 0xd0, 0x3c,
  0x72, 0x2e, 0x85, 0xbe, 0x8f, 0x0f, 0x0d, 0xbd, 0x2b, 0x0c, 0x04, 0x40,
  0x90, 0x76, 0xdc, 0x3c, 0x03, 0xca, 0xcd, 0xbc, 0xd9, 0xd5, 0x37, 0xbd,
  0x60, 0xf2, 0xdf, 0x3d, 0x5b, 0x31, 0xb7, 0x3e, 0x94, 0xd7, 0xd3, 0xbe,
  0x0e, 0xad, 0x49, 0x3c, 0x97, 0x57, 0xec, 0xbe, 0x47, 0x89, 0xc3, 0xbe,
  0xfc, 0x94, 0x96, 0xbd, 0x48, 0xe8, 0xd9, 0x3d, 0x79, 0x1c, 0x31, 0xbe,
  0x84, 0xf3, 0xcb, 0xbe, 0xd8, 0x22, 0x6d, 0xbe, 0x00, 0x1d, 0xd8, 0xbe,
  0xde, 0xc2, 0x92, 0x3f, 0x70, 0xa0, 0x8b, 0x3d, 0x5f, 0x9c, 0x87, 0xbc,
  0x75, 0xab, 0x50, 0x3d, 0x62, 0x7b, 0x36, 0x3e, 0xd8, 0x49, 0x6d, 0x3e,
  0x14, 0xaa, 0x3e, 0xbf, 0x70, 0xc3, 0x78, 0x3d, 0x2e, 0x0e, 0xf0, 0xbe,
  0xab, 0xb5, 0x32, 0xbe, 0xc4, 0x46, 0x01, 0xbe, 0x89, 0xf0, 0x3f, 0x3d,
  0xf8, 0x97, 0x35, 0xbd, 0x72, 0xc6, 0x00, 0xbf, 0xea, 0xf0, 0x4b, 0xbd,
  0x39, 0x5d, 0x90, 0xbe, 0xd2, 0x05, 0x32, 0x3f, 0xd9, 0x1a, 0x6e, 0xbe,
  0x2e, 0x30, 0x12, 0xbc, 0x3b, 0xa0, 0x85, 0x3d, 0x4a, 0xe3, 0x8c, 0xbd,
  0x20, 0x29, 0x40, 0x3e, 0x0d, 0xd6, 0x81, 0xbe, 0x28, 0x5a, 0x17, 0xbc,
  0x22, 0x4e, 0xc4, 0x3d, 0x31, 0x42, 0x25, 0x3d, 0x99, 0x37, 0x48, 0xbd,
  0x06, 0xcd, 0x88, 0x3d, 0x3b, 0x14, 0x1a, 0xbd, 0xb4, 0xc7, 0xbc, 0x3d,
  0x0f, 0xe8, 0xb2, 0xbe, 0xa1, 0x1b, 0x0e, 0xbd, 0x48, 0x6a, 0x3e, 0xbd,
  0x82, 0x2c, 0x67, 0xbe, 0xa1, 0x46, 0xe1, 0x3b, 0x42, 0x73, 0x63, 0xbd,
  0xb1, 0x5f, 0x8d, 0x3d, 0xde, 0x65, 0xa4, 0x3d, 0x51, 0xe3, 0x59, 0x3d,
  0xb2, 0xf0, 0x47, 0xbc, 0x29, 0xd6, 0x66, 0xbd, 0x02, 0x5e, 0x77, 0xbe,
  0x91, 0x22, 0x38, 0xbe, 0x4d, 0x11, 0x9f, 0x3d, 0xf5, 0x46, 0x51, 0x3e,
  0x7d, 0x29, 0x32, 0x3e, 0xca, 0x08, 0x47, 0xbe, 0xa5, 0xf6, 0x1f, 0x3e,
  0x85, 0x4e, 0x16, 0x40, 0x13, 0xff, 0x82, 0xbe, 0x42, 0x57, 0x55, 0xbb,
  0x23, 0xd5, 0x04, 0x3e, 0x7e, 0x52, 0xc7, 0xbd, 0x74, 0x61, 0xaa, 0x3e,
  0x64, 0x39, 0x5b, 0xbd, 0x25, 0xa8, 0x20, 0x3e, 0x76, 0x6a, 0xeb, 0x3c,
  0x16, 0xf2, 0x3e, 0xbe, 0x6b, 0x09, 0x25, 0xbe, 0xa3, 0x1a, 0x61, 0x3d,
  0x07, 0xfb, 0x8e, 0x3d, 0x47, 0xc5, 0x49, 0xbe, 0x3c, 0x4a, 0xe8, 0xbe,
  0xaf, 0x01, 0x4f, 0xbe, 0xa2, 0x20, 0xe4, 0x3f, 0x80, 0xd7, 0x82, 0xbe,
  0x32, 0xfc, 0x60, 0x39, 0x18, 0xd2, 0xe6, 0x3c, 0xd3, 0x82, 0x9c, 0xbd,
  0xe9, 0xa1, 0xf2, 0x3d, 0x6c, 0x74, 0xe0, 0xbe, 0x8d, 0x6f, 0x3f, 0x3e,
  0x44, 0x50, 0x65, 0xbe, 0x62, 0x4a, 0xa7, 0xbe, 0x13, 0xfe, 0xcf, 0x3b,
  0xe2, 0xea, 0xd2, 0x3d, 0x6b, 0xcc, 0xbb, 0x3b, 0x37, 0xe1, 0xc6, 0xbd,
  0x1f, 0x42, 0x0f, 0xbf, 0x4c, 0x75, 0xac, 0xbe, 0xcd, 0xb3, 0xab, 0x3f,
  0xd7, 0xf1, 0x5e, 0xbe, 0x4c, 0x54, 0x69, 0xbc, 0x1e, 0x6d, 0x91, 0xbd,
  0xa4, 0x9d, 0x86, 0xbb, 0x06, 0xe6, 0x21, 0x3e, 0x52, 0x92, 0x85, 0xbe,
  0x71, 0x25, 0x3d, 0xbd, 0x2f, 0x81, 0x42, 0xbe, 0xcd, 0xec, 0xb6, 0xbd,
  0x1f, 0xe5, 0x01, 0x3d, 0xd8, 0x28, 0xc0, 0x3d, 0x1a, 0x9f, 0xed, 0x3d,
  0x63, 0xe8, 0x8e, 0x3d, 0xaa, 0x84, 0x14, 0xbe, 0x35, 0xff, 0xac, 0x3d,
  0x91, 0xf1, 0x03, 0x40, 0xc8, 0x2f, 0x93, 0xbd, 0xf4, 0xb2, 0xd1, 0x3b,
  0x11, 0x86, 0xd7, 0xbd, 0xc5, 0xda, 0x63, 0xbc, 0x8b, 0x57, 0x41, 0x3e,
  0x0b, 0x30, 0xdf, 0xbd, 0xb6, 0x70, 0xcb, 0x3d, 0xdf, 0x4c, 0x00, 0x3e,
  0xf9, 0xfe, 0x6c, 0x3d, 0xf9, 0x22, 0x0d, 0xbe, 0xa7, 0x41, 0xc6, 0x3d,
  0xfc, 0x17, 0xe6, 0x3d, 0xda, 0xa4, 0x4c, 0x3d, 0x7a, 0xed, 0x37, 0xbe,
  0xbe, 0x87, 0x4b, 0xbd, 0xe3, 0x12, 0xad, 0x3f, 0xd1, 0xde, 0x43, 0xbe,
  0xb4, 0xa9, 0x10, 0x3b, 0xdd, 0x00, 0x82, 0x3d, 0x24, 0x88, 0x69, 0xbd,
  0x9c, 0x27, 0xb3, 0x3c, 0x2f, 0xde, 0x0f, 0x3d, 0xfa, 0x8a, 0xb9, 0x3d,
  0xca, 0xf6, 0x01, 0x3e, 0x1e, 0x0f, 0x3f, 0xbe, 0xf3, 0xfc, 0x79, 0xbd,
  0x07, 0x2f, 0xaa, 0x3d, 0x46, 0x80, 0xba, 0x3d, 0xf7, 0x7e, 0x6f, 0xbd,
  0x4d, 0x4e, 0xa2, 0xbd, 0xfc, 0xea, 0x5e, 0x3d, 0x37, 0x5b, 0x31, 0x3f,
  0xa7, 0x20, 0x9f, 0xbe, 0x88, 0x90, 0x8c, 0xbc, 0x34, 0x0c, 0xa9, 0x3d,
  0x18, 0x51, 0x85, 0x3b, 0x35, 0x09, 0x1c, 0x3d, 0xba, 0xbb, 0xf9, 0xbc,
  0x9f, 0x42, 0xd5, 0x3d, 0xf8, 0x6d, 0x21, 0x3e, 0x43, 0xb2, 0x7b, 0xbe,
  0x61, 0x0c, 0x07, 0x3e, 0xc9, 0x4c, 0x7f, 0x3d, 0x69, 0x70, 0x62, 0x3d,
  0xb1, 0x63, 0xa9, 0xbd, 0xde, 0xf1, 0x36, 0xbe, 0x73, 0x4b, 0x90, 0x3e,
  0xc5, 0x55, 0xa5, 0xbe, 0x2a, 0x89, 0x3b, 0xbf, 0x16, 0x01, 0x5d, 0xbf,
  0xe9, 0xfa, 0xa4, 0xbe, 0x6d, 0xcf, 0x81, 0x3e, 0x34, 0x57, 0xcc, 0xbd,
  0x2f, 0x49, 0xbe, 0xbe, 0x12, 0x8e, 0x75, 0x3c, 0x36, 0xc4, 0xe8, 0xbe,
  0x50, 0x0a, 0xca, 0x3e, 0x0d, 0x6f, 0x70, 0x3c, 0xc2, 0x65, 0x98, 0xbd,
  0xba, 0xa1, 0x02, 0x3e, 0x7f, 0x0c, 0xb8, 0x3e, 0x64, 0x80, 0x5d, 0x3e,
  0xf0, 0xaa, 0x85, 0x3d, 0xb3, 0x80, 0x3f, 0x3e, 0xe4, 0x5a, 0xd3, 0xbd,
  0xa2, 0xff, 0xc9, 0xbd, 0xef, 0x29, 0xc0, 0xbe, 0xce, 0xb0, 0xbf, 0x3e,
  0xf2, 0xab, 0x27, 0xbe, 0x72, 0x36, 0x07, 0x3e, 0x16, 0x5a, 0x59, 0x3e,
  0x02, 0x95, 0xc5, 0x3e, 0x5a, 0x90, 0x0b, 0x3e, 0x2f, 0x1f, 0xc1, 0xbd,
  0xc5, 0x39, 0xd9, 0x3d, 0x51, 0x5a, 0xb0, 0xbd, 0x38, 0xcb, 0xb1, 0x3e,
  0x91, 0xc2, 0xc3, 0xbc, 0xdc, 0x12, 0x99, 0x3e, 0x91, 0xea, 0x9a, 0xbd,
  0xe7, 0xe0, 0x00, 0x3d, 0x03, 0x9b, 0x5d, 0xbd, 0x20, 0x51, 0x16, 0xbf,
  0xc0, 0x59, 0xff, 0x3d, 0x0e, 0xd0, 0x45, 0x3e, 0x9a, 0xdc, 0xb2, 0x3d,
  0xfa, 0xec, 0xf9, 0x3c, 0x31, 0x02, 0x83, 0x3e, 0x02, 0xda, 0x44, 0x3e,
  0x7d, 0x45, 0xd6, 0xbe, 0xb7, 0x1e, 0x42, 0x3c, 0xfc, 0xb4, 0xdf, 0x3c,
  0xc2, 0x45, 0x77, 0x3e, 0x1d, 0x5e, 0x7f, 0xbe, 0xc8, 0x15, 0xa6, 0x3d,
  0x00, 0x85, 0xef, 0xbc, 0x1a, 0xf5, 0x2f, 0x3d, 0x17, 0xe2, 0xb3, 0xbd,
  0xf4, 0x48, 0x03, 0xbf, 0x9f, 0xd0, 0x81, 0x3d, 0xd1, 0x38, 0xb6, 0x3e,
  0xf5, 0xb6, 0x4d, 0x3c, 0xe1, 0xda, 0xd3, 0x3d, 0x56, 0x46, 0x3f, 0x3e,
  0xe8, 0x7a, 0x96, 0x3e, 0x7c, 0xff, 0x51, 0xbe, 0x19, 0xe8, 0x9c, 0xbc,
  0xe2, 0x78, 0x5a, 0xbd, 0xfe, 0x17, 0x07, 0x3e, 0x6a, 0x82, 0xda, 0xbd,
  0x40, 0xe2, 0x0f, 0x3e, 0x59, 0xfb, 0x82, 0x3e, 0x51, 0x64, 0x32, 0xbc,
  0xda, 0x2f, 0xa9, 0xbc, 0x2b, 0x50, 0x97, 0xbe, 0x8c, 0x63, 0x31, 0xbb,
  0xc8, 0x07, 0x9a, 0xbc, 0x5b, 0x39, 0x6b, 0x3d, 0x7d, 0xaa, 0xb6, 0xbb,
  0xb6, 0xb2, 0x79, 0x3e, 0xe1, 0x3e, 0x54, 0x3e, 0xb4, 0x69, 0xba, 0xbe,
  0xc8, 0x1f, 0xb4, 0xbd, 0x17, 0x7a, 0x4d, 0xbe, 0x38, 0xc9, 0xc6, 0x3d,
  0x83, 0x11, 0x22, 0xbe, 0x32, 0x4b, 0x01, 0x3e, 0xc9, 0x8f, 0x82, 0xbe,
  0x33, 0xe1, 0x1c, 0x3e, 0x74, 0x38, 0x49, 0x3d, 0xc0, 0x1d, 0xc0, 0xbe,
  0xa5, 0x0c, 0x39, 0x3e, 0xa2, 0x98, 0x8a, 0x3d, 0x25, 0xdc, 0x53, 0x3c,
  0x62, 0x24, 0x89, 0x3d, 0x51, 0x0f, 0x2e, 0x3e, 0xef, 0x12, 0x5e, 0x3d,
  0xaf, 0xeb, 0xcb, 0x3d, 0x96, 0xbb, 0x78, 0xbe, 0x3a, 0x58, 0x5a, 0xbd,
  0x87, 0xdf, 0x3d, 0x3d, 0x0c, 0x7b, 0xdc, 0x3d, 0x5f, 0xd1, 0xe6, 0x3d,
  0xe5, 0xb6, 0x1d, 0xbe, 0x6d, 0x7d, 0xba, 0x3d, 0xbe, 0x0c, 0x1f, 0xbd,
  0x26, 0x05, 0x8a, 0xbe, 0xe4, 0xab, 0xea, 0xbb, 0x1b, 0x13, 0xdd, 0xbe,
  0x1d, 0x72, 0x11, 0x3e, 0x47, 0xd4, 0x4d, 0x3c, 0x25, 0xf7, 0x55, 0x3e,
  0xe7, 0x37, 0xd8, 0x3c, 0x01, 0x89, 0xb6, 0xbd, 0xf9, 0x61, 0x69, 0x3d,
  0x45, 0x76, 0x94, 0x3d, 0xc6, 0xcf, 0x15, 0x3d, 0x52, 0xcb, 0x4d, 0xbd,
  0x9a, 0xac, 0x19, 0x3e, 0x8c, 0xf0, 0xc6, 0xbd, 0x48, 0x6e, 0xe5, 0x3d,
  0xd1, 0x06, 0x09, 0x3d, 0xb6, 0xd4, 0x0e, 0x3e, 0x9f, 0x79, 0x1c, 0x3e,
  0xde, 0xe1, 0x16, 0x3e, 0xb0, 0x53, 0xf4, 0x3d, 0xbf, 0x8f, 0x24, 0x3d,
  0xab, 0x8c, 0xa3, 0xbc, 0xcc, 0xf4, 0xc9, 0xbe, 0xc8, 0xf0, 0xe7, 0x3c,
  0x21, 0x94, 0xc3, 0xbe, 0x14, 0x18, 0x8a, 0x3d, 0x26, 0xb5, 0x39, 0x3e,
  0x8c, 0x44, 0x99, 0xbe, 0x16, 0xa4, 0x71, 0x3d, 0xbf, 0xb9, 0xfc, 0x3c,
  0xc8, 0x2b, 0x20, 0xbe, 0x8a, 0x3d, 0xfb, 0x3c, 0x8e, 0x65, 0x19, 0x3e,
  0xb8, 0x2c, 0xe8, 0x3d, 0x3b, 0x25, 0x2a, 0xbe, 0x9f, 0xfd, 0xa4, 0xbe,
  0x8e, 0xf1, 0x8f, 0xbc, 0x8e, 0xab, 0xa1, 0xbd, 0xfc, 0xf8, 0x69, 0xbe,
  0x3a, 0x0c, 0xd2, 0x3d, 0xed, 0x37, 0xaa, 0xbe, 0x86, 0xa1, 0xb2, 0x3d,
  0xa9, 0xe4, 0x23, 0xbe, 0xd8, 0xe4, 0x9b, 0xbe, 0xcc, 0x76, 0x87, 0xbe,
  0x4d, 0xda, 0x2e, 0xbe, 0xbd, 0x12, 0xb4, 0xbe, 0x96, 0x04, 0xd3, 0xbc,
  0x80, 0x1c, 0xa5, 0xbd, 0x31, 0xea, 0x19, 0xbe, 0x96, 0x6e, 0xcb, 0x3d,
  0x63, 0xec, 0xbb, 0xbe, 0xaa, 0x35, 0x32, 0xbe, 0xde, 0xbe, 0x6e, 0xbe,
  0x3f, 0x49, 0x48, 0x3a, 0x70, 0xed, 0xf2, 0x3d, 0x17, 0x41, 0x09, 0xbf,
  0xb2, 0x60, 0xc6, 0xbd, 0x31, 0x9c, 0x89, 0xbe, 0xa6, 0x9d, 0x94, 0xbe,
  0x44, 0x3f, 0x0e, 0xbe, 0x3c, 0x06, 0xa4, 0x3d, 0x2c, 0xc2, 0xfe, 0xbd,
  0x51, 0x58, 0xb8, 0xbd, 0xbe, 0x2c, 0x9d, 0xbd, 0xba, 0xd9, 0x9f, 0xbe,
  0x82, 0x55, 0x9b, 0x3d, 0xf5, 0x55, 0x93, 0xbe, 0x57, 0x5e, 0xf0, 0xbe,
  0xe8, 0x94, 0x4e, 0x3c, 0x9d, 0x4f, 0x02, 0xbd, 0x70, 0xa0, 0xd3, 0x3d,
  0x88, 0xe6, 0xfc, 0xbc, 0x1b, 0x28, 0x85, 0xbd, 0x73, 0x0d, 0xe4, 0xbd,
  0x95, 0xa8, 0xb3, 0xbd, 0xf0, 0x10, 0x12, 0xbe, 0x28, 0xd3, 0x2b, 0xbe,
  0x8a, 0xd2, 0x4b, 0xbd, 0xab, 0x29, 0x0a, 0xbd, 0xa3, 0xce, 0xa2, 0xbd,
  0x78, 0xf6, 0x6a, 0xbe, 0x0d, 0x27, 0x56, 0xbe, 0x64, 0x48, 0x9d, 0xbe,
  0xd3, 0x2f, 0x00, 0x3e, 0x01, 0xfc, 0x7a, 0x3d, 0xe8, 0x5c, 0xa8, 0x3d,
  0x51, 0x81, 0xf0, 0x3b, 0x0c, 0x33, 0x1a, 0x3e, 0x5c, 0x90, 0x88, 0x3e,
  0xc3, 0x68, 0x1d, 0x3e, 0x3e, 0xa7, 0x91, 0xbd, 0x14, 0x88, 0xfa, 0x3d,
  0xb3, 0x36, 0xc5, 0x3e, 0x5c, 0xb9, 0xec, 0xbd, 0x7d, 0x9a, 0xb9, 0xbc,
  0xc3, 0x47, 0x64, 0xbd, 0x29, 0x27, 0xbc, 0xbd, 0x40, 0x84, 0x33, 0xbe,
  0x86, 0xd1, 0x40, 0x3c, 0x65, 0xd5, 0x6c, 0x3d, 0x72, 0x16, 0x1b, 0x3c,
  0x2e, 0xfa, 0x87, 0xbd, 0x88, 0xb1, 0x7a, 0xbc, 0x5b, 0xb3, 0x52, 0x3d,
  0x49, 0x4c, 0x74, 0xbd, 0x43, 0xed, 0xb4, 0xbd, 0x0e, 0xe2, 0x34, 0xbe,
  0xcc, 0x5a, 0x12, 0x3e, 0xaa, 0xb6, 0x53, 0xbe, 0xeb, 0x30, 0xdb, 0xbd,
  0xab, 0xbe, 0x1f, 0xbd, 0x49, 0x4c, 0x5c, 0x3b, 0x35, 0x70, 0x88, 0xbc,
  0x3b, 0x25, 0x88, 0x3c, 0xcd, 0x40, 0xa5, 0x3d, 0x92, 0x5c, 0xdb, 0x3b,
  0xfa, 0x30, 0x71, 0xbd, 0xc6, 0xbb, 0x5b, 0x3d, 0x38, 0xcf, 0x0f, 0xbe,
  0x18, 0x74, 0x81, 0x3d, 0xd7, 0x09, 0xa7, 0xbc, 0x74, 0x4f, 0x28, 0xbe,
  0x03, 0x51, 0x8f, 0x3d, 0xbd, 0x61, 0xf0, 0xbd, 0x3a, 0x34, 0x7f, 0x3e,
  0x2c, 0x2e, 0xab, 0x3d, 0x71, 0x28, 0x9b, 0xbe, 0xde, 0x28, 0x12, 0xbe,
  0x00, 0x8d, 0x3c, 0xbe, 0xed, 0x0b, 0x55, 0x3d, 0x0e, 0x8d, 0xfc, 0xbd,
  0xf6, 0x7f, 0x20, 0xbc, 0x6d, 0x10, 0xe2, 0xbd, 0xb6, 0xcb, 0x4e, 0x3e,
  0xf4, 0x7c, 0x1a, 0x3e, 0x5f, 0xae, 0x07, 0x3d, 0xd6, 0xce, 0x1c, 0xbe,
  0x5d, 0x2f, 0xf3, 0xbd, 0x51, 0xe8, 0x04, 0xbe, 0x90, 0x9c, 0x0f, 0x3c,
  0x2c, 0x84, 0x4d, 0x3e, 0x73, 0x76, 0x85, 0x3d, 0x7c, 0x69, 0x1e, 0xbe,
  0xd1, 0x2f, 0x55, 0xbc, 0xb8, 0x65, 0x68, 0x3d, 0xe5, 0xdc, 0x70, 0xbe,
  0x8e, 0x69, 0x19, 0xbe, 0x75, 0x5c, 0x69, 0xbe, 0x4a, 0x03, 0x74, 0xbd,
  0xcd, 0xe5, 0x06, 0x3e, 0xe2, 0x53, 0xc8, 0x3d, 0xba, 0xcc, 0xbd, 0xbd,
  0xcf, 0x70, 0x29, 0xbc, 0xcb, 0x7d, 0x95, 0xbd, 0xef, 0x18, 0xdc, 0xbd,
  0x8d, 0x1f, 0x2c, 0xbc, 0x52, 0x31, 0x28, 0x3e, 0xa5, 0xa2, 0x93, 0x3e,
  0xe2, 0x17, 0x1f, 0xbf, 0x7d, 0x44, 0x36, 0x3e, 0x3f, 0x84, 0xf6, 0x39,
  0xb2, 0x0c, 0xf5, 0x3d, 0xd7, 0x13, 0xc6, 0xbd, 0x66, 0x3f, 0x22, 0x3e,
  0x9c, 0x50, 0x23, 0xbe, 0xfb, 0x12, 0x36, 0xbe, 0xc0, 0x61, 0x39, 0x3e,
  0x67, 0x73, 0x06, 0xbe, 0xc5, 0x69, 0xfb, 0xbb, 0x02, 0x74, 0x85, 0x3d,
  0xa3, 0xdd, 0x0e, 0xbe, 0x65, 0x3a, 0x46, 0xbe, 0x51, 0x89, 0x2e, 0xbe,
  0xd2, 0x97, 0xfe, 0xbd, 0x54, 0x02, 0xd9, 0xbe, 0xc6, 0x1c, 0xc1, 0xbc,
  0xe6, 0xaf, 0x12, 0x3d, 0x24, 0x26, 0x93, 0xbd, 0xe8, 0x6d, 0xc4, 0xbb,
  0x5c, 0x5b, 0xc4, 0xbd, 0x9b, 0xbe, 0xb8, 0xbc, 0x64, 0xe4, 0x2c, 0x3e,
  0x3f, 0x62, 0x7e, 0x3e, 0xeb, 0xc7, 0x49, 0xbe, 0xc0, 0x80, 0x8a, 0x3d,
  0xbe, 0xc4, 0x46, 0xbe, 0xd0, 0xa3, 0xec, 0xbd, 0x95, 0x68, 0x21, 0x3d,
  0xb3, 0x61, 0x7f, 0x3c, 0x7f, 0xc9, 0x9c, 0xbd, 0x2b, 0xab, 0x63, 0xbe,
  0xda, 0x30, 0x63, 0xbe, 0x7d, 0x97, 0x93, 0xbe, 0x9e, 0x79, 0x26, 0xbc,
  0xf0, 0x46, 0xbd, 0xbc, 0x18, 0x0c, 0xe4, 0xbc, 0x41, 0x44, 0x09, 0xbd,
  0x49, 0x14, 0x86, 0x3c, 0x19, 0xa0, 0x9d, 0x3e, 0x13, 0xd5, 0xda, 0xbd,
  0xad, 0xcf, 0x41, 0x3d, 0xbf, 0x4b, 0x9e, 0x3c, 0x18, 0x37, 0x85, 0x3d,
  0xfe, 0x36, 0x2f, 0xbe, 0x1a, 0xd3, 0xdf, 0x3d, 0x9b, 0xbc, 0xe8, 0xbc,
  0x87, 0x79, 0xc9, 0xbe, 0xf1, 0x47, 0x74, 0xbd, 0x39, 0x18, 0xe9, 0x3c,
  0xf8, 0x23, 0x09, 0xbd, 0xdd, 0xf5, 0x97, 0xbe, 0x19, 0x15, 0x05, 0xbd,
  0xf4, 0xa0, 0x26, 0xbd, 0x72, 0x40, 0x2d, 0x3e, 0x44, 0xb6, 0x0d, 0xbe,
  0x2b, 0x8a, 0x80, 0xbe, 0x1b, 0xfc, 0xa1, 0xbd, 0x16, 0x96, 0x38, 0xbe,
  0xb7, 0xe0, 0xa9, 0xbd, 0x27, 0x06, 0x01, 0xbe, 0x86, 0x4d, 0x23, 0x3c,
  0x3b, 0x9d, 0xa0, 0xbe, 0xe7, 0xb9, 0x9e, 0xbe, 0x40, 0x54, 0x64, 0xbe,
  0xeb, 0xdb, 0x1c, 0xbe, 0x55, 0x5e, 0xa4, 0x3d, 0xe0, 0xf1, 0xf8, 0xbd,
  0x6c, 0x31, 0x80, 0xbd, 0x8d, 0x3c, 0x86, 0x3c, 0xac, 0x1b, 0x23, 0xbe,
  0x27, 0x3d, 0x9b, 0xbb, 0x05, 0x74, 0xa7, 0xbc, 0xbf, 0x18, 0xd4, 0xbd,
  0x54, 0x60, 0xbe, 0xbe, 0xc0, 0xf8, 0x91, 0xbd, 0x76, 0x85, 0x90, 0xbe,
  0x51, 0xbf, 0x3a, 0x3e, 0xf8, 0xc3, 0x9b, 0x3e, 0xca, 0x3e, 0xda, 0x3c,
  0xde, 0xb0, 0x34, 0x3d, 0x5c, 0x4d, 0x5e, 0x3d, 0x63, 0x87, 0xcb, 0x3e,
  0x1e, 0x81, 0x8e, 0xbe, 0x4c, 0x16, 0x9d, 0x3d, 0x7a, 0xb4, 0x7e, 0xbe,
  0xe4, 0xac, 0xb7, 0xbd, 0xf6, 0x29, 0xc6, 0xbc, 0x76, 0xc2, 0xc3, 0x3d,
  0x7a, 0x70, 0x10, 0x3d, 0xf7, 0x8d, 0x09, 0xbe, 0x9f, 0xd2, 0x8e, 0xbd,
  0x9f, 0x61, 0x7b, 0xbe, 0xda, 0x14, 0xf6, 0x3f, 0xdd, 0x2d, 0x18, 0xbe,
  0x7d, 0x37, 0x6b, 0xbc, 0xe4, 0x1f, 0x24, 0xbd, 0x6b, 0x24, 0xfd, 0xbd,
  0x61, 0x80, 0x6c, 0x3d, 0x0d, 0x9b, 0xe5, 0xbc, 0xe6, 0x95, 0x9b, 0x3c,
  0x0c, 0x7a, 0xed, 0x3b, 0x66, 0xcd, 0x1d, 0xbe, 0xee, 0xfe, 0xa6, 0xbd,
  0xbe, 0x9e, 0x72, 0x3e, 0xde, 0xe7, 0xad, 0x3d, 0xd3, 0xe8, 0xae, 0xbc,
  0xf4, 0x04, 0x01, 0xbe, 0x02, 0x38, 0x33, 0xbe, 0x73, 0xea, 0xea, 0x3f,
  0x16, 0x3c, 0x9a, 0xbe, 0xbd, 0xa5, 0x5e, 0xbc, 0xf5, 0x08, 0x60, 0xbc,
  0xd3, 0xa4, 0x9c, 0x3d, 0xb6, 0xe3, 0xf6, 0x3d, 0x1a, 0x13, 0xb4, 0xbd,
  0x25, 0xd2, 0x6c, 0x3e, 0x00, 0xd8, 0x42, 0xbe, 0x97, 0xda, 0x96, 0xbd,
  0x0e, 0x0a, 0x52, 0xbd, 0x48, 0xc7, 0xad, 0x3e, 0xd8, 0xc5, 0xb9, 0x3d,
  0x91, 0x4e, 0x18, 0xbe, 0xf4, 0x65, 0xa4, 0xbd, 0x22, 0x4e, 0x5a, 0xbe,
  0x01, 0xe0, 0x4d, 0x40, 0x69, 0xeb, 0x17, 0xbe, 0x3d, 0x05, 0xa0, 0x3b,
  0xdf, 0x3e, 0xd0, 0x3c, 0x79, 0x74, 0x4c, 0x3e, 0x9c, 0x0d, 0xa4, 0x3d,
  0x08, 0x59, 0xab, 0xbd, 0x23, 0x92, 0x39, 0x3e, 0x5b, 0x36, 0xd9, 0xbd,
  0xb1, 0x05, 0x68, 0xbe, 0x24, 0x11, 0x25, 0x3d, 0x9d, 0xa5, 0xfc, 0x3c,
  0x2c, 0xb7, 0x64, 0xbd, 0xbc, 0x46, 0x4b, 0xbe, 0xad, 0xb1, 0x5c, 0xbe,
  0x9f, 0xe2, 0x0d, 0xbe, 0x96, 0xa6, 0x25, 0x40, 0x80, 0xc8, 0x24, 0xbe,
  0xd4, 0xac, 0x33, 0x3d, 0x34, 0x5b, 0x2d, 0x3c, 0xbd, 0x3c, 0xcc, 0x3d,
  0xa4, 0xd1, 0x05, 0x3f, 0xb6, 0x8e, 0x89, 0xbe, 0x38, 0xe7, 0x71, 0xbc,
  0x82, 0x66, 0xc0, 0xbe, 0x7c, 0x34, 0xac, 0xbe, 0x9b, 0xcb, 0xda, 0x3d,
  0xc6, 0x7f, 0x1d, 0x3d, 0xd9, 0x79, 0x32, 0xbe, 0x44, 0xb3, 0xc9, 0xbe,
  0xc4, 0xb8, 0xa5, 0xbc, 0x90, 0x89, 0xa8, 0xbe, 0x27, 0x51, 0x8d, 0x3e,
  0x04, 0x29, 0x95, 0xbe, 0xbd, 0x5f, 0x6d, 0xbb, 0x6c, 0x5c, 0xe6, 0x3d,
  0x3f, 0x5f, 0x33, 0x3e, 0xd0, 0x8d, 0xb0, 0x3e, 0x75, 0x99, 0x74, 0xbe,
  0xff, 0xe4, 0x14, 0xbd, 0x5f, 0xf3, 0xab, 0xbe, 0xe9, 0x78, 0x76, 0xbe,
  0xc3, 0x3e, 0x91, 0xbc, 0x64, 0xb9, 0x31, 0x3d, 0xaa, 0xb7, 0xff, 0xbc,
  0xc1, 0xf1, 0x68, 0xbe, 0xb9, 0x6e, 0xb7, 0x3d, 0x93, 0x09, 0xba, 0xbd,
  0x4e, 0x39, 0xd0, 0x3e, 0x69, 0x64, 0x86, 0xbe, 0x0c, 0xc1, 0x25, 0x3d,
  0x81, 0xc1, 0xa2, 0x3d, 0xb2, 0x0a, 0xa1, 0xbb, 0x93, 0xae, 0xb7, 0x3d,
  0x93, 0x0f, 0x34, 0xbe, 0xe1, 0x04, 0x0a, 0xbd, 0x38, 0x0f, 0x9c, 0xbd,
  0xff, 0xc5, 0x05, 0x3e, 0xed, 0x06, 0xef, 0x3d, 0xa4, 0x21, 0xb8, 0xbd,
  0x46, 0x7e, 0x2c, 0xbe, 0x59, 0xf0, 0x1c, 0xbe, 0x5b, 0x32, 0xdc, 0x3c,
  0x56, 0x0f, 0x07, 0xbe, 0x01, 0x22, 0x63, 0x3e, 0x6d, 0x68, 0xa1, 0x3e,
  0x3b, 0xaa, 0x11, 0xbd, 0x7d, 0xb7, 0x14, 0xbe, 0x90, 0xbe, 0xba, 0xbc,
  0xc6, 0xd1, 0xb7, 0x3d, 0x26, 0x93, 0x23, 0x3c, 0x66, 0x3b, 0x14, 0xbe,
  0x24, 0x87, 0x38, 0x3e, 0x17, 0x87, 0x08, 0x3e, 0x8f, 0x71, 0xad, 0x3e,
  0xaf, 0x00, 0x82, 0x3d, 0xc7, 0xb5, 0x34, 0xbe, 0xf5, 0x89, 0x88, 0xbd,
  0x1e, 0x3d, 0x04, 0x3e, 0x84, 0xe3, 0xae, 0x3c, 0xae, 0xb9, 0x2a, 0x3e,
  0xfd, 0xa3, 0xa4, 0x3e, 0x88, 0x2b, 0xb9, 0xbe, 0x56, 0x8f, 0x12, 0xbe,
  0xfd, 0x67, 0x35, 0x3e, 0xc4, 0x36, 0x0c, 0xbe, 0x96, 0x74, 0x03, 0xbd,
  0xbe, 0x28, 0x1c, 0xbe, 0x0e, 0x01, 0x8a, 0x3d, 0xa7, 0xc6, 0x5b, 0xbd,
  0x9d, 0x92, 0xa7, 0x3d, 0xd1, 0xb3, 0x5b, 0xbc, 0x15, 0x52, 0x84, 0xbd,
  0xd2, 0x82, 0x9c, 0xbe, 0x1a, 0x77, 0xe4, 0x3d, 0x4c, 0xd5, 0x47, 0x3e,
  0x2d, 0x7d, 0xc8, 0xbd, 0x0c, 0x5c, 0x3e, 0x3d, 0x9a, 0x05, 0x86, 0xbe,
  0x0f, 0xc0, 0x67, 0xbe, 0x26, 0x20, 0x2c, 0xbd, 0xe0, 0xda, 0x8f, 0x3d,
  0x7c, 0xde, 0xa3, 0x3b, 0x62, 0x09, 0x38, 0xbe, 0x66, 0x7b, 0x52, 0xbd,
  0x3f, 0x7e, 0x80, 0xbd, 0x09, 0x56, 0xe6, 0xbd, 0xf2, 0x53, 0x27, 0xbd,
  0x31, 0xc7, 0x7a, 0x3b, 0xb4, 0x80, 0x3c, 0xbd, 0xc7, 0xd2, 0xe5, 0xbb,
  0x77, 0xa8, 0x49, 0x3e, 0x5e, 0x3e, 0x46, 0x3a, 0x6c, 0xe8, 0x2e, 0xbe,
  0xe1, 0x88, 0x88, 0xbe, 0xa4, 0xa8, 0x11, 0xbe, 0xf4, 0x30, 0xcc, 0xbd,
  0x26, 0xf4, 0xcd, 0x3d, 0xbb, 0xca, 0xb4, 0x3d, 0x30, 0x9c, 0xa9, 0xbd,
  0xcf, 0xf4, 0xdb, 0x3d, 0xef, 0x1e, 0x82, 0x3d, 0xfc, 0x94, 0x7e, 0x3e,
  0x26, 0xa3, 0xf4, 0xbd, 0xca, 0xf4, 0x5c, 0xbe, 0xb0, 0x41, 0x22, 0xbe,
  0x04, 0x67, 0xe5, 0x3d, 0x4d, 0x2b, 0xde, 0x3d, 0xad, 0x69, 0x48, 0xbe,
  0xc7, 0xa4, 0x20, 0x3c, 0xd7, 0xa1, 0xf7, 0xbe, 0x2c, 0xc1, 0x92, 0x39,
  0x50, 0x2b, 0x81, 0x3b, 0xfb, 0x51, 0xf3, 0x3d, 0xa4, 0xb4, 0x9f, 0xbb,
  0xd5, 0x05, 0xac, 0xbd, 0x80, 0xb2, 0x23, 0x3e, 0x32, 0x90, 0x1f, 0x3d,
  0x62, 0x6a, 0x0f, 0x3e, 0x85, 0x4a, 0x2e, 0xbe, 0x7b, 0x5c, 0x7e, 0x3d,
  0x9a, 0xad, 0x0d, 0xbe, 0x1c, 0x0b, 0xa0, 0x3d, 0x1b, 0x68, 0x5b, 0xbe,
  0xa4, 0xb6, 0x28, 0xbe, 0xda, 0x17, 0x1f, 0xbe, 0x33, 0x9b, 0x8c, 0xbe,
  0xcb, 0x79, 0x56, 0xbe, 0x6d, 0xc8, 0xa3, 0xbe, 0xea, 0x0b, 0x19, 0xbe,
  0xdf, 0x80, 0x87, 0xbd, 0xf9, 0xfa, 0x1b, 0xbe, 0xdc, 0xcc, 0x96, 0x3e,
  0xc8, 0x71, 0xcb, 0x3e, 0xe4, 0x1d, 0x3d, 0x3e, 0x8b, 0x70, 0xde, 0xbc,
  0xf3, 0x3b, 0x75, 0x3d, 0x9e, 0x7f, 0x35, 0xbe, 0xaf, 0x64, 0x52, 0xbe,
  0x14, 0x4b, 0xb6, 0x3d, 0xe2, 0xec, 0xd2, 0x3d, 0x48, 0x88, 0x35, 0xbd,
  0x5c, 0xfe, 0x92, 0xbe, 0x8c, 0x41, 0x67, 0x3e, 0xb3, 0x56, 0x40, 0x3d,
  0xdb, 0x6e, 0xeb, 0xbd, 0x48, 0x49, 0xb8, 0xbd, 0xdd, 0xbc, 0xcb, 0x3c,
  0xf5, 0xb8, 0x8d, 0x3d, 0xf6, 0x8d, 0x81, 0x3d, 0x75, 0x13, 0xb0, 0x3e,
  0xa5, 0xf3, 0x0e, 0xbe, 0x6e, 0x50, 0x84, 0xbe, 0x8c, 0x5b, 0x0a, 0xbf,
  0x65, 0x86, 0xc2, 0x3e, 0xdd, 0x63, 0x11, 0xbf, 0xd6, 0x76, 0x4b, 0xbe,
  0xc4, 0xdb, 0xc0, 0x3e, 0x0c, 0x18, 0xa7, 0xbe, 0x48, 0xc8, 0x7d, 0xbd,
  0x53, 0x6f, 0xd7, 0xbe, 0x9f, 0x8d, 0x2d, 0xbd, 0xe3, 0x1c, 0x86, 0x3d,
  0x93, 0xff, 0x0d, 0xbe, 0x8a, 0x70, 0xc2, 0xbd, 0xe3, 0x53, 0x46, 0x3e,
  0xe2, 0x94, 0xd7, 0x3e, 0xed, 0xde, 0x20, 0xbc, 0x0b, 0x5e, 0x3e, 0xbe,
  0x1d, 0x8b, 0x88, 0xbe, 0x10, 0xac, 0x1a, 0x3e, 0xbe, 0xf5, 0xc8, 0xbd,
  0xde, 0x2e, 0xeb, 0xbd, 0x0f, 0x65, 0x6f, 0x3e, 0x6e, 0x7a, 0x2f, 0xbe,
  0x2f, 0x7e, 0xb5, 0x3d, 0xdc, 0x9f, 0x3c, 0xbb, 0xfc, 0xc0, 0x61, 0xbe,
  0xd6, 0xc0, 0x10, 0x3c, 0x40, 0x62, 0x17, 0xbe, 0xee, 0x33, 0x81, 0xbe,
  0x65, 0x7c, 0xc4, 0xbd, 0x9a, 0xa5, 0xeb, 0x3d, 0xc1, 0xbe, 0x8a, 0x3d,
  0xcf, 0x1d, 0xf3, 0x3d, 0xfd, 0x72, 0x1b, 0xbe, 0x53, 0x9d, 0xad, 0x3d,
  0xf1, 0x05, 0x36, 0x3d, 0x94, 0x07, 0xf0, 0xbd, 0x98, 0xfd, 0x98, 0x3d,
  0xfa, 0xed, 0xfc, 0xbd, 0x83, 0x41, 0x4f, 0x3e, 0x83, 0x32, 0x54, 0xbe,
  0x5b, 0x0a, 0x90, 0x3d, 0x21, 0x85, 0xaa, 0x3d, 0xad, 0xad, 0xe2, 0xbc,
  0xd9, 0xcb, 0x58, 0xbd, 0x62, 0xee, 0x52, 0xbe, 0x73, 0x81, 0x4a, 0xbd,
  0x7d, 0xac, 0xb2, 0x3d, 0xe3, 0xd7, 0x79, 0x3e, 0xb6, 0xd7, 0xa7, 0xbe,
  0xcf, 0xa0, 0xf7, 0x3c, 0x9f, 0x4c, 0x6f, 0x3d, 0x26, 0x50, 0x37, 0xbc,
  0xdf, 0x9e, 0xb2, 0x3d, 0xc6, 0xb2, 0xc4, 0xbd, 0x28, 0x0e, 0xfd, 0x3d,
  0x69, 0x22, 0xc6, 0x3c, 0x22, 0x9b, 0xaa, 0xbb, 0x7c, 0xbe, 0x9c, 0x3d,
  0xf3, 0xd3, 0x5d, 0x3e, 0x75, 0xba, 0x0c, 0xbe, 0x87, 0x33, 0xb8, 0x3c,
  0xd6, 0xdb, 0xb3, 0x3e, 0xb2, 0x7d, 0x02, 0xbe, 0xa6, 0x4c, 0x5b, 0x3d,
  0x35, 0x95, 0x70, 0xbe, 0x07, 0x5a, 0x83, 0x3e, 0x0b, 0xb5, 0xe9, 0xbd,
  0x56, 0x73, 0x0f, 0xbe, 0x75, 0x8d, 0x24, 0x3e, 0x8c, 0x67, 0x2a, 0xbe,
  0x44, 0x66, 0x90, 0x3d, 0x28, 0x4f, 0x55, 0xbe, 0xcd, 0x05, 0x67, 0xbe,
  0xe7, 0xa1, 0x05, 0x3d, 0x69, 0x7b, 0x8b, 0xbd, 0x1a, 0xfb, 0x2e, 0xbe,
  0x6b, 0x2b, 0x0e, 0xbd, 0x86, 0x12, 0x0b, 0x3f, 0x6e, 0xc6, 0xa9, 0xbe,
  0x8b, 0xde, 0xd1, 0xbd, 0x08, 0x51, 0x20, 0xbf, 0x18, 0x22, 0x95, 0x3e,
  0xae, 0x9f, 0xc2, 0xbe, 0x0a, 0xc0, 0x26, 0xbe, 0x4f, 0x69, 0xa6, 0x3c,
  0xe0, 0x99, 0x66, 0xbe, 0xdf, 0x6e, 0x63, 0x3e, 0x16, 0x67, 0x9a, 0xbd,
  0xbc, 0x9f, 0x3c, 0xbe, 0x92, 0x5a, 0x09, 0x3d, 0xd7, 0x60, 0x58, 0xbe,
  0x12, 0xe4, 0x30, 0xbe, 0x06, 0xdb, 0x3f, 0xbd, 0xea, 0x14, 0xb2, 0xbe,
  0x90, 0x53, 0xa4, 0x3d, 0xf2, 0x64, 0x06, 0xbd, 0xd0, 0x26, 0x41, 0xbe,
  0x3b, 0xe4, 0x1a, 0x3e, 0xf4, 0xf5, 0x3a, 0xbe, 0x2a, 0xab, 0x21, 0x3e,
  0x41, 0x33, 0x4f, 0xbe, 0x3f, 0x7e, 0x51, 0xbe, 0xe6, 0x37, 0x14, 0xbc,
  0xc1, 0x70, 0x5f, 0xbe, 0x4c, 0xa9, 0x8c, 0x3c, 0x6f, 0x10, 0x79, 0x3d,
  0x3b, 0x2c, 0x02, 0xbd, 0xce, 0x33, 0x32, 0xbe, 0x57, 0x13, 0x0f, 0x3e,
  0x41, 0x1b, 0x17, 0x3d, 0x75, 0xfb, 0xe3, 0xbc, 0xb6, 0xbb, 0xb8, 0xbe,
  0xce, 0x8d, 0xc4, 0xbe, 0x31, 0xfe, 0x77, 0x3e, 0x16, 0xd0, 0x9e, 0xbe,
  0x48, 0xc9, 0xd3, 0x3d, 0xa4, 0x7c, 0x28, 0x3e, 0x99, 0x5f, 0xd4, 0x3c,
  0xf1, 0xc7, 0xe4, 0xbd, 0x3f, 0x49, 0x44, 0xbe, 0x29, 0xda, 0x73, 0xbe,
  0x50, 0xed, 0xab, 0x3d, 0x32, 0x48, 0x81, 0xbe, 0x43, 0xa6, 0x68, 0x3d,
  0x95, 0x48, 0x71, 0x3d, 0x65, 0x5a, 0xa8, 0xbc, 0x36, 0x7f, 0xce, 0xbd,
  0x41, 0x5d, 0xd1, 0xbe, 0x1c, 0x43, 0x24, 0xbe, 0x6f, 0x38, 0x02, 0xbe,
  0x7d, 0x83, 0x6e, 0xbd, 0xdc, 0xd7, 0x81, 0xbd, 0x74, 0x52, 0x26, 0x3d,
  0x09, 0x2f, 0x1d, 0x3d, 0x74, 0x33, 0x90, 0x3b, 0xb1, 0xe0, 0xb7, 0x3b,
  0x0c, 0x00, 0x99, 0xbe, 0x9b, 0x44, 0xb8, 0xbc, 0x53, 0x71, 0xbd, 0xbe,
  0xfe, 0x28, 0x06, 0xbe, 0xbf, 0x63, 0x1c, 0x3e, 0xce, 0x25, 0x25, 0xbe,
  0x5c, 0x9e, 0x0e, 0xbd, 0xe9, 0xac, 0x9c, 0x3d, 0xa0, 0x2f, 0x6d, 0xbe,
  0x8c, 0xf8, 0x0b, 0xbe, 0x91, 0x3b, 0x3f, 0xbe, 0xf0, 0xa3, 0x9b, 0xbd,
  0xb4, 0x57, 0x97, 0x3d, 0xb4, 0xcd, 0x32, 0x3d, 0x1a, 0xfb, 0x22, 0x3e,
  0x61, 0x22, 0xfd, 0x3c, 0xc1, 0x9e, 0xaf, 0x3c, 0xe8, 0x5c, 0xbd, 0x3c,
  0xaf, 0xb7, 0x1d, 0xbe, 0x70, 0x5d, 0x17, 0x3c, 0x4d, 0xf2, 0xfc, 0x3d,
  0xc1, 0x17, 0x38, 0xbd, 0xd7, 0x86, 0x32, 0xbe, 0x56, 0x62, 0x45, 0x3e,
  0x49, 0x6c, 0x25, 0xbe, 0xae, 0x16, 0x9b, 0xbd, 0x1b, 0xfd, 0x1a, 0xbe,
  0x27, 0x4c, 0xc7, 0xbd, 0xdf, 0xfc, 0x73, 0x3c, 0x1d, 0xcb, 0x4e, 0x3d,
  0x61, 0x9d, 0xb1, 0x3c, 0xab, 0x42, 0x34, 0x3e, 0x4f, 0xd7, 0xde, 0xbd,
  0x3d, 0x28, 0x95, 0xbd, 0xe6, 0xa2, 0x65, 0xbe, 0x85, 0xb7, 0xcd, 0x3c,
  0xf0, 0x55, 0xc7, 0x3c, 0xb3, 0x6a, 0xcf, 0xbc, 0xa4, 0x67, 0x2d, 0xbe,
  0xa0, 0x10, 0x44, 0x3d, 0x6a, 0xfb, 0x10, 0xbe, 0x5c, 0x94, 0xdf, 0xbc,
  0x72, 0x28, 0x26, 0xbe, 0x16, 0xd3, 0xcb, 0x3c, 0xa5, 0xf2, 0x57, 0xbc,
  0x3e, 0xe9, 0x60, 0x3c, 0x3a, 0xb3, 0xd4, 0xba, 0x13, 0x57, 0x80, 0x3e,
  0x04, 0x25, 0x7f, 0xbd, 0xe1, 0x48, 0x94, 0xbd, 0x31, 0x05, 0x9f, 0xbe,
  0xa7, 0x1f, 0xbd, 0xbd, 0xfe, 0xa9, 0x98, 0x3d, 0x39, 0x0f, 0xc7, 0xbd,
  0x71, 0xce, 0xdb, 0xbe, 0xd8, 0xba, 0x81, 0xbe, 0x8f, 0x5e, 0x85, 0xbe,
  0x99, 0xae, 0xf2, 0xbd, 0x18, 0x03, 0x75, 0xbe, 0x43, 0x75, 0xb8, 0xbd,
  0x65, 0xbe, 0xc7, 0xbc, 0x2d, 0x81, 0xfd, 0xbc, 0x00, 0xb6, 0x19, 0xbe,
  0x6e, 0x8b, 0x8a, 0xbc, 0x1f, 0x58, 0x2d, 0xbe, 0xbe, 0x9e, 0xd6, 0xbd,
  0x1c, 0x00, 0xc8, 0xbe, 0x7d, 0x08, 0xf2, 0xbd, 0xb8, 0x0f, 0xe5, 0x3d,
  0x62, 0x3c, 0x06, 0x3e, 0xef, 0x2b, 0xfb, 0xbd, 0x30, 0x17, 0x2b, 0xbd,
  0x18, 0xc8, 0xdf, 0x3c, 0xc7, 0x61, 0xcf, 0x3d, 0xe9, 0x81, 0x8a, 0xbd,
  0x76, 0x1f, 0x37, 0x3e, 0x37, 0x01, 0xbb, 0xbc, 0xa5, 0x55, 0x9c, 0x3d,
  0xe2, 0x93, 0xe1, 0xbd, 0x18, 0x0b, 0x77, 0x3d, 0xd8, 0x07, 0x41, 0xbe,
  0xe4, 0x7e, 0x96, 0xbc, 0x03, 0x3c, 0xb3, 0x3c, 0x83, 0x7e, 0x7d, 0x3d,
  0x4f, 0xb9, 0xbf, 0xbd, 0x8e, 0x7b, 0x69, 0x3e, 0xd6, 0x24, 0xbc, 0xbd,
  0x16, 0xed, 0x19, 0xbe, 0x34, 0xfe, 0xc2, 0xbd, 0xa6, 0xb7, 0xb0, 0x3d,
  0x85, 0x8f, 0x6f, 0xbd, 0x9f, 0x52, 0xa1, 0x3e, 0x22, 0x65, 0xce, 0x3e,
  0xdd, 0x8e, 0x82, 0xbe, 0x30, 0x8a, 0x15, 0x3e, 0x8e, 0x81, 0xa4, 0xbc,
  0x8d, 0x31, 0x93, 0xbe, 0xa9, 0x1f, 0x75, 0xbd, 0x28, 0x91, 0x99, 0xbc,
  0xe0, 0xff, 0x4a, 0xbe, 0x5e, 0x8d, 0x19, 0x3e, 0xd4, 0x39, 0x33, 0xbd,
  0x24, 0x1c, 0x04, 0xbe, 0x44, 0x17, 0x07, 0xbe, 0x17, 0x7c, 0xa1, 0xbd,
  0xf9, 0xd2, 0x96, 0x3d, 0xc9, 0x74, 0x02, 0xbe, 0xaa, 0x20, 0x90, 0xbc,
  0xb7, 0x70, 0x7b, 0x3d, 0x97, 0x44, 0x88, 0xbe, 0x8e, 0x01, 0xc4, 0xba,
  0x24, 0xa2, 0x42, 0x3e, 0x6d, 0x2c, 0x4f, 0xbe, 0x09, 0xff, 0x01, 0x3b,
  0x19, 0x62, 0x04, 0xbe, 0xf9, 0x70, 0x2b, 0xbe, 0xcc, 0xf8, 0x98, 0xbd,
  0x3f, 0xcd, 0xb2, 0x3e, 0xbf, 0xa9, 0x45, 0x3e, 0xbb, 0xb0, 0x6d, 0x3d,
  0xd2, 0xa9, 0x95, 0x3c, 0xef, 0xb0, 0x3c, 0x3e, 0x15, 0xce, 0xbc, 0xbd,
  0x4f, 0x84, 0xa8, 0xbd, 0xe7, 0x67, 0xf0, 0xbd, 0xbd, 0x17, 0xb7, 0xbe,
  0x18, 0x4b, 0x1b, 0x3d, 0xfb, 0x5a, 0x41, 0xbc, 0x60, 0xb7, 0xd1, 0x3d,
  0xf2, 0xc9, 0x19, 0x3d, 0x7a, 0x54, 0xd1, 0xbd, 0xf5, 0x38, 0x3d, 0xbd,
  0x55, 0x5f, 0x7b, 0xbc, 0xf2, 0x2d, 0x95, 0x3e, 0xe8, 0xdb, 0xb4, 0x3c,
  0x15, 0x2d, 0x14, 0xbd, 0x98, 0x16, 0x45, 0xbe, 0xcb, 0x32, 0x3d, 0x3e,
  0x2f, 0xa6, 0x7a, 0xbd, 0x1d, 0x90, 0x0a, 0xbe, 0xdf, 0xc2, 0x75, 0xbd,
  0x87, 0x5b, 0xb4, 0xbe, 0xce, 0x33, 0x67, 0x3e, 0x55, 0xfc, 0xb5, 0x3d,
  0x10, 0x3c, 0x82, 0xbc, 0xd2, 0xbd, 0x02, 0x3d, 0x7d, 0x81, 0x32, 0x3e,
  0x88, 0xc2, 0x44, 0xbe, 0x82, 0x30, 0x32, 0xbe, 0x21, 0xf2, 0x68, 0x3e,
  0x4d, 0x9e, 0x5e, 0xbe, 0x29, 0x13, 0x82, 0xbd, 0xe9, 0x3f, 0x2f, 0xbe,
  0x04, 0x1b, 0x9e, 0x3e, 0x8f, 0x2e, 0x42, 0x3d, 0x1e, 0x9f, 0xd8, 0xbd,
  0x25, 0x26, 0x07, 0x3d, 0x0a, 0x9a, 0xd6, 0xbe, 0x84, 0x71, 0x24, 0x3e,
  0x7a, 0x85, 0x52, 0x3d, 0xda, 0xd3, 0x83, 0xbe, 0xf5, 0x7f, 0x92, 0xbd,
  0x5a, 0x8f, 0x27, 0xbe, 0x63, 0xf4, 0xb1, 0xbd, 0x49, 0x35, 0xd0, 0x3d,
  0x38, 0x92, 0x2c, 0x3e, 0xef, 0x3a, 0x4b, 0xbe, 0xc8, 0xde, 0x7d, 0x3d,
  0xce, 0x0c, 0x5a, 0xbe, 0x4e, 0xc1, 0x54, 0x3e, 0xd8, 0x3d, 0x81, 0xbe,
  0xd4, 0xf9, 0x1a, 0xbd, 0x17, 0x06, 0x4a, 0x3d, 0x33, 0x29, 0x9d, 0xbe,
  0x3d, 0x0c, 0x65, 0x3e, 0x0c, 0x63, 0x31, 0x3c, 0x39, 0x47, 0x54, 0xbe,
  0x6d, 0x07, 0xae, 0xbd, 0xbb, 0x7c, 0x28, 0xbe, 0xaa, 0x03, 0xa3, 0xbd,
  0x24, 0xcc, 0x78, 0x3e, 0xf8, 0x3d, 0xac, 0x3d, 0x9b, 0xed, 0x11, 0xbe,
  0xc5, 0x15, 0x0b, 0xbd, 0x3e, 0xc8, 0x2b, 0xbe, 0x3a, 0xcc, 0xa2, 0x3e,
  0x3d, 0xf7, 0x9c, 0xbe, 0x14, 0x62, 0x84, 0xbe, 0x97, 0xd2, 0x40, 0xbe,
  0xad, 0xd3, 0xf7, 0xbd, 0x7b, 0x5a, 0x6f, 0x3d, 0xf8, 0xe1, 0x6c, 0xbd,
  0x13, 0x84, 0x69, 0xbd, 0x1a, 0x98, 0x41, 0xbd, 0x12, 0x55, 0xcc, 0x3b,
  0xd4, 0xc6, 0x6a, 0xbe, 0x62, 0xfd, 0xff, 0xff, 0x10, 0x00, 0x00, 0x00,
  0x07, 0x00, 0x00, 0x00, 0x14, 0x00, 0x00, 0x00, 0x2c, 0x00, 0x00, 0x00,
  0x02, 0x00, 0x00, 0x00, 0x10, 0x00, 0x00, 0x00, 0x70, 0x00, 0x00, 0x00,
  0x17, 0x00, 0x00, 0x00, 0x73, 0x65, 0x71, 0x75, 0x65, 0x6e, 0x74, 0x69,
  0x61, 0x6c, 0x2f, 0x64, 0x65, 0x6e, 0x73, 0x65, 0x2f, 0x4d, 0x61, 0x74,
  0x4d, 0x75, 0x6c, 0x00, 0xcc, 0xfc, 0xff, 0xff, 0xd6, 0xfd, 0xff, 0xff,
  0x04, 0x00, 0x00, 0x00, 0x08, 0x00, 0x00, 0x00, 0xff, 0xff, 0xff, 0xff,
  0x70, 0x00, 0x00, 0x00, 0x00, 0x00, 0x0e, 0x00, 0x18, 0x00, 0x08, 0x00,
  0x07, 0x00, 0x0c, 0x00, 0x10, 0x00, 0x14, 0x00, 0x0e, 0x00, 0x00, 0x00,
  0x00, 0x00, 0x00, 0x02, 0x10, 0x00, 0x00, 0x00, 0x06, 0x00, 0x00, 0x00,
  0x10, 0x00, 0x00, 0x00, 0x2c, 0x00, 0x00, 0x00, 0x01, 0x00, 0x00, 0x00,
  0x02, 0x00, 0x00, 0x00, 0x18, 0x00, 0x00, 0x00, 0x73, 0x65, 0x71, 0x75,
  0x65, 0x6e, 0x74, 0x69, 0x61, 0x6c, 0x2f, 0x66, 0x6c, 0x61, 0x74, 0x74,
  0x65, 0x6e, 0x2f, 0x43, 0x6f, 0x6e, 0x73, 0x74, 0x00, 0x00, 0x00, 0x00,
  0x34, 0xfd, 0xff, 0xff, 0x3e, 0xfe, 0xff, 0xff, 0x04, 0x00, 0x00, 0x00,
  0x10, 0x00, 0x00, 0x00, 0xb4, 0xe0, 0x07, 0xc0, 0x13, 0x65, 0x1e, 0xc0,
  0xbf, 0x25, 0x4b, 0xbf, 0x44, 0x3e, 0x40, 0x40, 0x26, 0xfe, 0xff, 0xff,
  0x10, 0x00, 0x00, 0x00, 0x05, 0x00, 0x00, 0x00, 0x10, 0x00, 0x00, 0x00,
  0x44, 0x00, 0x00, 0x00, 0x01, 0x00, 0x00, 0x00, 0x04, 0x00, 0x00, 0x00,
  0x32, 0x00, 0x00, 0x00, 0x73, 0x65, 0x71, 0x75, 0x65, 0x6e, 0x74, 0x69,
  0x61, 0x6c, 0x2f, 0x64, 0x65, 0x6e, 0x73, 0x65, 0x5f, 0x31, 0x2f, 0x42,
  0x69, 0x61, 0x73, 0x41, 0x64, 0x64, 0x2f, 0x52, 0x65, 0x61, 0x64, 0x56,
  0x61, 0x72, 0x69, 0x61, 0x62, 0x6c, 0x65, 0x4f, 0x70, 0x2f, 0x72, 0x65,
  0x73, 0x6f, 0x75, 0x72, 0x63, 0x65, 0x00, 0x00, 0xa8, 0xfd, 0xff, 0xff,
  0xb2, 0xfe, 0xff, 0xff, 0x04, 0x00, 0x00, 0x00, 0x40, 0x00, 0x00, 0x00,
  0x5b, 0x17, 0x40, 0xbf, 0xe8, 0x69, 0x8a, 0xbe, 0x84, 0x80, 0x48, 0xbe,
  0x4f, 0xbd, 0xfd, 0xbd, 0xc5, 0x20, 0xd6, 0xbf, 0x01, 0xb6, 0x48, 0xbf,
  0xf0, 0x1f, 0x6a, 0x3f, 0x31, 0x4f, 0x3b, 0xbf, 0xee, 0xb5, 0xa9, 0xbe,
  0x05, 0x02, 0xe0, 0xbf, 0xae, 0xc5, 0x8f, 0xbe, 0x39, 0x92, 0x6c, 0x40,
  0x94, 0x30, 0xa7, 0xbe, 0x08, 0xc7, 0x34, 0x3f, 0x80, 0x5e, 0x0e, 0x40,
  0xd1, 0x29, 0xc6, 0x3e, 0xca, 0xfe, 0xff, 0xff, 0x10, 0x00, 0x00, 0x00,
  0x04, 0x00, 0x00, 0x00, 0x10, 0x00, 0x00, 0x00, 0x44, 0x00, 0x00, 0x00,
  0x01, 0x00, 0x00, 0x00, 0x10, 0x00, 0x00, 0x00, 0x30, 0x00, 0x00, 0x00,
  0x73, 0x65, 0x71, 0x75, 0x65, 0x6e, 0x74, 0x69, 0x61, 0x6c, 0x2f, 0x64,
  0x65, 0x6e, 0x73, 0x65, 0x2f, 0x42, 0x69, 0x61, 0x73, 0x41, 0x64, 0x64,
  0x2f, 0x52, 0x65, 0x61, 0x64, 0x56, 0x61, 0x72, 0x69, 0x61, 0x62, 0x6c,
  0x65, 0x4f, 0x70, 0x2f, 0x72, 0x65, 0x73, 0x6f, 0x75, 0x72, 0x63, 0x65,
  0x00, 0x00, 0x00, 0x00, 0x4c, 0xfe, 0xff, 0xff, 0x56, 0xff, 0xff, 0xff,
  0x04, 0x00, 0x00, 0x00, 0x40, 0x00, 0x00, 0x00, 0x26, 0x45, 0x47, 0xbf,
  0xaa, 0x21, 0x5b, 0x3f, 0x70, 0x09, 0x1c, 0x40, 0x33, 0xe9, 0x03, 0xc0,
  0x28, 0xaf, 0xe7, 0xbf, 0xc3, 0x84, 0x69, 0xbf, 0x7a, 0xbf, 0x61, 0xbf,
  0x0c, 0xda, 0xa5, 0x40, 0x74, 0x4e, 0x32, 0xbf, 0x80, 0x98, 0x64, 0x3e,
  0x0a, 0x11, 0xc1, 0x3e, 0xfd, 0x46, 0xd0, 0xbe, 0xd5, 0x6c, 0x4e, 0xbf,
  0x35, 0xf8, 0xa5, 0xbf, 0xcb, 0xbe, 0x31, 0xbf, 0xa4, 0x67, 0x48, 0xbf,
  0x6e, 0xff, 0xff, 0xff, 0x10, 0x00, 0x00, 0x00, 0x03, 0x00, 0x00, 0x00,
  0x10, 0x00, 0x00, 0x00, 0x48, 0x00, 0x00, 0x00, 0x01, 0x00, 0x00, 0x00,
  0x10, 0x00, 0x00, 0x00, 0x33, 0x00, 0x00, 0x00, 0x73, 0x65, 0x71, 0x75,
  0x65, 0x6e, 0x74, 0x69, 0x61, 0x6c, 0x2f, 0x63, 0x6f, 0x6e, 0x76, 0x32,
  0x64, 0x5f, 0x31, 0x2f, 0x42, 0x69, 0x61, 0x73, 0x41, 0x64, 0x64, 0x2f,
  0x52, 0x65, 0x61, 0x64, 0x56, 0x61, 0x72, 0x69, 0x61, 0x62, 0x6c, 0x65,
  0x4f, 0x70, 0x2f, 0x72, 0x65, 0x73, 0x6f, 0x75, 0x72, 0x63, 0x65, 0x00,
  0x04, 0x00, 0x06, 0x00, 0x04, 0x00, 0x00, 0x00, 0x00, 0x00, 0x06, 0x00,
  0x08, 0x00, 0x04, 0x00, 0x06, 0x00, 0x00, 0x00, 0x04, 0x00, 0x00, 0x00,
  0x20, 0x00, 0x00, 0x00, 0x0a, 0x32, 0xb5, 0xbf, 0x88, 0x19, 0xf9, 0xbf,
  0xa9, 0xab, 0x78, 0xbf, 0xe9, 0xe2, 0xe7, 0xbf, 0x29, 0xe9, 0x12, 0xc0,
  0xe3, 0xde, 0xdc, 0xbf, 0x4f, 0xa6, 0x99, 0xbb, 0x4f, 0x77, 0x05, 0x40,
  0x00, 0x00, 0x0e, 0x00, 0x14, 0x00, 0x04, 0x00, 0x00, 0x00, 0x08, 0x00,
  0x0c, 0x00, 0x10, 0x00, 0x0e, 0x00, 0x00, 0x00, 0x10, 0x00, 0x00, 0x00,
  0x02, 0x00, 0x00, 0x00, 0x10, 0x00, 0x00, 0x00, 0x44, 0x00, 0x00, 0x00,
  0x01, 0x00, 0x00, 0x00, 0x08, 0x00, 0x00, 0x00, 0x31, 0x00, 0x00, 0x00,
  0x73, 0x65, 0x71, 0x75, 0x65, 0x6e, 0x74, 0x69, 0x61, 0x6c, 0x2f, 0x63,
  0x6f, 0x6e, 0x76, 0x32, 0x64, 0x2f, 0x42, 0x69, 0x61, 0x73, 0x41, 0x64,
  0x64, 0x2f, 0x52, 0x65, 0x61, 0x64, 0x56, 0x61, 0x72, 0x69, 0x61, 0x62,
  0x6c, 0x65, 0x4f, 0x70, 0x2f, 0x72, 0x65, 0x73, 0x6f, 0x75, 0x72, 0x63,
  0x65, 0x00, 0x00, 0x00, 0x90, 0xff, 0xff, 0xff, 0x14, 0x00, 0x18, 0x00,
  0x04, 0x00, 0x00, 0x00, 0x08, 0x00, 0x0c, 0x00, 0x10, 0x00, 0x00, 0x00,
  0x00, 0x00, 0x14, 0x00, 0x14, 0x00, 0x00, 0x00, 0x14, 0x00, 0x00, 0x00,
  0x01, 0x00, 0x00, 0x00, 0x20, 0x00, 0x00, 0x00, 0x44, 0x00, 0x00, 0x00,
  0x2c, 0x00, 0x00, 0x00, 0x04, 0x00, 0x00, 0x00, 0x01, 0x00, 0x00, 0x00,
  0x40, 0x00, 0x00, 0x00, 0x03, 0x00, 0x00, 0x00, 0x01, 0x00, 0x00, 0x00,
  0x0c, 0x00, 0x00, 0x00, 0x63, 0x6f, 0x6e, 0x76, 0x32, 0x64, 0x5f, 0x69,
  0x6e, 0x70, 0x75, 0x74, 0x00, 0x00, 0x00, 0x00, 0x04, 0x00, 0x00, 0x00,
  0xff, 0xff, 0xff, 0xff, 0x40, 0x00, 0x00, 0x00, 0x03, 0x00, 0x00, 0x00,
  0x01, 0x00, 0x00, 0x00, 0xfc, 0xff, 0xff, 0xff, 0x04, 0x00, 0x04, 0x00,
  0x04, 0x00, 0x00, 0x00
};


unsigned int model_tflite_len = 13120;// Fill the int in `src/model.cc` here